#version: 0.2
Ġ t
h e
Ġ a
i n
Ġt he
e r
o n
Ġ ,
r e
Ġ s
Ġ o
Ġ w
e d
u n
Ġ .
a t
n d
o r
Ġ c
i t
Ġ f
e n
i s
Ġo f
e s
Ġ b
Ġ in
a r
un k
a n
Ġ <
a l
Ġa nd
Ġ p
in g
a s
Ġt o
Ġ m
r o
i c
Ġ d
Ġ h
Ġ Ċ
i on
l e
Ġ T
Ġ =
Ġ re
Ġ "
Ġt h
en t
o u
Ġ A
Ġ 1
i l
Ġ S
s t
Ġ l
o m
Ġ e
Ġ n
Ġ @
a m
Ġ C
e l
a d
Ġw as
a c
ĠT he
Ġ on
Ġb e
u r
l y
Ġ M
Ġ '
Ġ I
Ġ g
Ġf or
i v
o l
t er
Ġ B
- @
Ġ@ -@
i m
i d
i r
Ġa s
c t
i g
t h
o w
it h
Ġs t
Ġ H
u s
Ġ 2
a y
Ġth at
Ġw ith
he r
o t
c e
v er
u t
at ion
e t
Ġ is
Ġ P
Ġw h
c h
Ġb y
Ġ R
Ġ )
Ġ (
Ġa l
Ġ F
Ġ D
Ġc on
e m
u l
Ġ W
Ġa t
Ġ it
Ġ1 9
a nd
a in
ro m
o s
Ġ N
Ġa n
Ġ G
Ġ L
er s
Ġ he
es t
a g
a v
0 0
Ġ J
Ġs e
u m
Ġd e
Ġh is
Ġ r
Ġf rom
o d
Ġ O
r i
Ġc om
Ġ E
p e
un d
is t
Ġp ro
i f
l d
i es
er e
or t
Ġ v
re s
Ġs u
o re
Ġw ere
il l
ĠI n
a p
on g
e w
o p
ig h
ic h
Ġo r
at e
ar t
al l
ar d
a k
Ġc h
b er
am e
Ġe x
g h
a b
u d
Ġp l
s e
at ed
an t
it y
Ġa re
Ġ â
o c
iv e
es s
q u
Ġs h
Ġâ Ģ
Ġh ad
Ġ k
ac k
Ġwh ich
u p
Ġ U
re d
Ġ y
Ġ K
Ġ le
o v
ou r
Ġn ot
m ent
as t
i p
ĠS t
r it
or d
e ar
p t
Ġt r
g e
al ly
i an
t her
o st
in e
av e
igh t
o un
el l
Ġ 3
is h
c l
ar y
ĠC h
Ġ2 00
u st
ir st
i a
Ġ ;
p p
t e
Ġcom p
Ġthe ir
Ġb ut
c c
s o
ct ion
f ter
Ġf irst
ou s
u re
Ġit s
ou ld
r a
ĠâĢ ĵ
id e
Ġw he
Ġcon t
Ġa r
u e
ic al
om e
Ġ un
w o
o g
he d
Ġ2 0
Ġ :
i al
u b
i e
Ġ her
Ġal so
it ion
Ġ ro
Ġin t
Ġ V
ow n
Ġc l
at er
ou t
ig n
Ġ us
or m
or k
Ġa b
Ġa d
o k
f f
p er
Ġh ave
ag e
r u
i re
ĠH e
Ġon e
as s
Ġh as
Ġre c
l ow
m er
im e
Ġbe en
Ġt wo
Ġ 4
d u
Ġre s
ĠT h
Ġ1 8
. @
Ġ@ .@
Ġp er
on d
Ġ 5
re e
Ġb o
Ġwh o
en ce
ur ing
ou gh
l and
t ed
Ġth is
a re
Ġbe c
i le
r y
p l
or y
an ce
u gh
e ct
ĠI t
an s
Ġs c
Ġpl ay
ĠA l
Ġthe y
cl ud
Ġy ear
Ġ20 1
Ġp art
Ġa g
ad e
Ġd es
ation s
Ġm an
r ic
Ġo ther
Ġd is
ul t
Ġt e
el y
Ġa fter
ac h
Ġ j
Ġs er
Ġo ver
o ver
Ġof f
Ġ up
, @
Ġ@ ,@
an g
Ġin clud
Ġs p
ion s
Ġ en
it e
ur n
ac t
o und
oun t
Ġ im
ac e
ic e
i z
i b
w n
Ġo ut
k e
res s
Ġ Y
ar k
Ġt ime
Ġn e
Ġint o
Ġf in
Ġp re
Ġe v
c ed
p ort
w e
ĠO n
Ġs pe
c es
Ġw ould
Ġm ore
Ġs he
Ġcom m
as on
Ġat t
w ard
ro ugh
Ġal l
re n
os e
on e
a il
it ed
Ġh im
am p
Ġw e
ter n
i ed
en s
o in
as ed
Ġ 6
ĠU n
Ġc ent
ri b
ĠR e
Ġw ork
ent s
il d
ĠS e
i x
Ġm e
o od
as e
l es
ing s
t s
m an
ro und
Ġ 7
Ġf e
Ġthe m
ab le
i ous
Ġwhe n
Ġbe t
Ġs ong
ak e
or s
Ġse c
at es
al s
v el
ub l
Ġe ar
Ġre m
ĠA n
ol d
is s
er ed
Ġk n
f orm
Ġm ost
Ġd uring
g an
at h
a us
Ġon ly
f er
und er
il m
Ġn ew
Ġg ame
o y
v ed
em ber
v e
or th
ol low
we en
Ġ19 9
re at
ĠA s
w ay
ou th
ĠA r
Ġ 9
Ġ 8
Ġre l
Ġc an
Ġab out
ter s
Ġag ain
Ġse ason
Ġth ree
Ġcon s
Ġth an
ĠE n
ic k
u g
ĠM ar
Ġbet ween
at t
a w
r al
Ġrec ord
Ġs ome
ation al
Ġ under
on s
Ġch ar
ct ed
ul ar
f ore
Ġth rough
in d
ic t
Ġl ater
h ip
i ew
Ġc ol
Ġn um
Ġ 00
ĠC om
f t
is ion
Ġw rit
Ġwh ile
ĠD e
Ġpro du
Ġp os
Ġf ilm
Ġre le
Ġ ver
am es
Ġe nd
Ġin ter
is hed
Ġa p
e y
Ġp e
Ġm ade
Ġp r
Ġfor m
n ing
Ġf l
Ġre g
Ġas s
or ld
Ġwhe re
Ġs o
Ġspe c
ĠN ew
Ġm ov
e ver
mer ic
ĠA meric
ur y
Ġl ar
b um
Ġa c
Ġa pp
Ġre t
r on
Ġf ollow
en er
Ġn o
Ġb u
Ġsu ch
Ġde f
Ġsec ond
iv ed
Ġf our
oc k
a id
Ġm us
Ġ qu
Ġa cc
Ġus ed
Ġsu b
ol og
Ġin c
Ġa ct
i ke
ĠA t
ro p
Ġd ay
ĠTh is
ar s
ĠL e
Ġp ubl
if ic
Ġa m
u al
Ġc all
Ġal bum
Ġin d
he s
Ġ00 0
Ġbe fore
Ġd o
Ġap pe
o b
il y
o h
Ġbe ing
an k
Ġg r
Ġc o
an y
Ġyear s
ĠEn g
Ġthe re
Ġsu pp
Ġg ro
e nd
c k
ow ever
at ing
an e
Ġf ound
Ġ 0
Ġe le
Ġh igh
Ġs et
i el
Ġe p
if e
ic s
or n
he n
Ġs y
ir d
Ġ ent
ot her
iv er
Ġs ur
ain ed
Ġ1 0
Ġser ies
ig in
Ġnum ber
p en
t en
l l
in ce
Ġl oc
aus e
Ġde c
Ġp res
p h
vel op
Ġbo th
od e
Ġse ver
it ies
ce pt
Ġ1 2
Ġthe n
Ġinclud ing
in es
Ġep is
s on
ĠB rit
Ġ /
Ġagain st
Ġw ell
Ġbec ame
Ġkn own
j ect
ĠâĢ Ķ
ro s
is ed
Ġp o
t on
Ġchar ac
Ġad d
Ġper form
Ġdes c
Ġs ing
Ġb l
Ġg o
Ġc ap
Ġ19 8
Ġd ire
ur ch
ĠJ oh
a j
Ġ1 6
al e
Ġb ack
Ġman y
ĠS h
Ġp op
p r
Ġm ain
id ent
th ough
ĠUn ited
Ġin v
Ġst ud
it s
Ġl ong
is e
at her
u res
Ġtr ans
Ġor igin
i o
ĠJoh n
ĠB r
i et
er t
em ent
Ġcent ury
Ġm on
Ġte am
o ber
ĠA fter
o ol
ĠS c
Ġ est
Ġde velop
Ġsh ow
an n
Ġm in
iel d
e k
ow er
Ġe m
i er
el f
Ġ19 4
a ir
ut e
Ġc re
Ġsever al
ĠS he
Ġle ad
u ch
Ġ1 7
a red
Ġbe gan
Ġ19 6
f ul
iv ers
er n
Ġ1 1
Ġ1 5
Ġm ill
Ġd if
Ġcont in
Ġ19 7
over n
Ġs ign
u ally
r am
v iew
Ġs m
i red
at ive
Ġm ay
Ġsh ip
Ġcomp le
Ġb r
Ġc ould
Ġear ly
Ġc rit
Ġd id
Ġcall ed
ain s
Ġar t
Ġepis ode
t il
Ġn ear
Ġo b
ĠI nd
Ġhis t
Ġp ol
Ġdesc rib
l ed
Ġb el
em b
u ed
Ġre ce
op le
i am
un e
Ġal ong
Ġr un
in s
Ġt er
im es
ment s
Ġde p
Ġb ro
cc ess
Ġs aid
le y
ĠW h
Ġfe at
ĠAmeric an
Ġd own
v en
ĠI s
Ġin st
Ġthe se
ak ing
ĠM ay
d er
Ġm il
Ġd ist
ĠA ust
Ġth ough
g est
ĠG er
ros s
Ġdis c
y l
ĠBrit ish
Ġo per
Ġun til
Ġ Z
ov e
t ing
o ot
Ġst art
an c
Ġc ity
Ġs ame
r ap
Ġin f
u red
Ġpre v
Ġrele ased
el s
Ġg ener
t y
an ge
Ġex p
Ġo wn
iz ed
Ġan y
Ġret urn
te nd
am ed
ĠThe y
i ally
ĠW ar
Ġk m
id ed
Ġl and
Ġdes ign
Ġw ar
Ġre p
Ġmus ic
Ġpro v
Ġim p
Ġmill ion
Ġbec ause
Ġare a
Ġus e
aj or
ĠC on
Ġc ar
Ġf am
Ġa ir
a z
ĠA ug
ĠAug ust
om an
Ġl ike
Ġo pen
Ġsu ccess
Ġm at
os ed
Ġs im
ĠF r
ĠCh r
Ġo cc
ers on
in k
e p
en n
Ġcon st
o ok
Ġpe ople
ul l
Ġe ff
h y
i um
Ġin s
Ġp ass
ch ool
Ġoff ic
st em
ib le
x t
Ġs ix
Ġc ount
Ġ19 5
Ġsupp ort
ĠB l
ĠB e
Ġa round
m y
ĠH owever
Ġsm all
a h
Ġw in
Ġ %
ĠSe pt
u c
Ġn orth
Ġad v
Ġd am
Ġgro up
Ġst r
ĠC ar
Ġp oin
Ġe ach
ĠSept ember
u es
on y
Ġcons id
Ġm et
ou se
Ġfollow ing
ĠP l
Ġcharac ter
ĠJ u
er v
ist s
ward s
ĠW orld
Ġl ife
m s
Ġ ed
ĠAust ral
Ġhe ad
Ġ1 3
ain ing
Ġf ive
Ġm od
Ġcont ro
Ġg overn
Ġatt ack
o le
Ġ19 3
ord ing
ĠCom m
i ent
al es
Ġv ar
os s
u th
ĠAl l
Ġw ill
ĠT e
Ġlar ge
Ġe ver
ut ion
et s
Ġ19 1
ĠI I
ĠH er
Ġg u
ĠC ol
Ġan n
Ġre port
ro w
Ġcon c
ag ue
ur al
ĠU S
ĠM e
ĠC l
ro te
l ish
ĠJ une
Ġbo ok
ĠN orth
av ing
ac ed
ĠE u
as h
ĠF or
Ġt it
ĠGer man
d om
Ġs ince
ĠSt ates
i k
Ġp rom
Ġs outh
Ġrece ived
Ġm ajor
Ġfin al
il t
m ed
p ed
Ġn ame
at ely
iv ision
ĠJ an
ĠA d
pe ct
ĠO ct
Ġpart ic
Ġsy stem
ĠS outh
Ġpubl ic
Ġc are
Ġst ate
Ġd r
ĠChr ist
Ġwh at
ĠK ing
iv es
Ġdire ct
u ary
Ġl ast
Ġhe l
Ġdescrib ed
t le
he l
Ġex t
ĠOct ober
ore d
Ġ1 4
Ġl ine
Ġ $
Ġappe ar
Ġre st
ĠC an
Ġb att
Ġwe ek
Ġplay ed
c ess
Ġcl ass
Ġbu ild
Ġinc re
Ġto ok
rop ical
Ġn ow
ĠF e
ĠN ov
ar l
Ġ [
Ġ ]
ĠY ork
g in
Ġw orld
ag ed
ĠJu ly
Ġw rote
Ġl ate
ag es
. .
ĠT r
iv ing
em pt
Ã ©
ion al
b le
Ġw on
Ġspec ies
olog y
ide o
Ġst ru
a im
Ġch ild
Ġ. ..
Ġm uch
Ġ2 5
ĠD uring
Ġd ue
od y
if ied
Ġser v
ĠA pr
Ġsing le
ĠApr il
Ġc amp
Ġal low
at s
i od
m in
ĠG u
Ġsh ort
Ġp ort
Ġde ath
Ġver s
Ġj ust
b all
Ġt y
Ġm ar
Ġan other
Ġinclud ed
ĠEu ro
Ġpos s
ĠJan uary
Ġo ld
il ity
iv ely
Ġst orm
g et
Ġev en
Ġdif fer
Ġg un
Ġwith in
ĠEng land
Ġl ist
iss ion
Ġle ft
Ġres ult
is m
om in
Ġpos ition
Ġn amed
Ġb ased
Ġest ab
Ġ if
Ġcon f
ant s
Ġar r
Ġal though
Ġv is
Ġpro g
Ġatt empt
a x
on t
Ġ3 0
Ġver y
Ġapp ro
in a
Ġth ird
Ġg ames
b y
it al
Ġto p
Ġre f
ĠA nd
ak es
Ġbel ie
Ġtr ack
ction s
ĠMar ch
n er
p le
Ġl it
ĠG r
Ġprev ious
Ġfam ily
ĠM us
ĠP ro
ĠNov ember
Ġp ower
Ġt ri
Ġre view
Ġper iod
Ġev ent
Ġ Q
Ġb est
Ġh ome
ĠG e
m ber
Ġw ay
il ar
ur ric
Ġs chool
Ġres p
ĠR o
ĠEuro pe
Ġw ater
ĠH is
Ġgovern ment
an ces
og rap
ent ly
ce mber
Ġex pl
ĠDe cember
Ġ19 2
Ġm en
re t
Ġth ose
av y
ra ft
ĠThe re
ĠB y
g er
Ġt urn
Ġconst ru
i ence
Ġh um
Ġpl ace
ĠC ity
ul ation
Ġor gan
Ġs l
Ġbu ilt
at ure
Ġb re
pe nd
ard s
ur ther
Ġg reat
ian s
id es
Ġst ory
Ġpro te
Ġcomm and
ac hed
Ġk ill
Ġmon th
ĠW hen
Ġcol le
c hed
he st
Ġs ent
Ġp erson
Ġorigin al
ri pt
ivers ity
it ary
Ġm ake
Ġh and
Ġo pp
ed er
Ġ1 00
Ġ200 9
Ġ201 0
Ġm ed
Ġv ideo
ĠN ational
Ġ Â
Ġ200 8
Ġa uth
Ġre qu
Ġh al
ent ion
Ġpres ent
oc i
a ur
p or
Ġm ark
Ġp h
Ġsu g
h am
Ġcl ub
Ġen g
en ces
ri end
iv en
as ter
el t
en e
Ġv iew
ĠM c
ic ally
s elf
ĠR iver
Ġmov ed
Ġl ed
Ġro le
Ġadd ition
Ġcap t
Ġst and
Ġst ill
Ġc ame
Ġle g
Ġloc al
Ġis s
Ġre pl
ren ch
g y
en se
ĠP r
a ff
Ġof ten
Ġhist ory
urric ane
Ġcomm on
Ġc aus
Ġd est
iv al
ĠW e
Ġc our
a e
is on
ĠM an
Ġd em
ak en
Ġeff ect
er y
Ġf ew
b e
ĠB o
ad y
ĠN o
op s
Ġ200 7
Ġne xt
Ġconsid ered
ĠF l
Ġtr ad
or ies
en g
Ġplay er
Ġsug gest
l ing
le v
Ġst ar
as tern
ĠS p
ĠF rench
Ġex per
s ide
Ġm y
Ġsim ilar
Ġcare er
ĠOn e
Ġrecord ed
ĠEng lish
Ġs ide
us s
Ġr ight
ĠP e
in ed
Ġc r
Ġin it
le t
Ġim port
Ġre al
ĠO r
Ġcl aim
qu e
ĠB att
Ġcomp any
a i
Ġc over
Ġpubl ished
ĠB ro
Ġde b
Ġcontin ued
Ġcont r
re w
ar n
id ge
Ġre fer
Ġy ou
Ġt ake
Ġb as
Ġwith out
Ġs old
Ġm id
ĠP h
tern ational
Ġsong s
Ġdiffer ent
Ġs ay
Ġto wn
Ġfor mer
ĠW ith
Ġan t
i or
Ġw ind
Ġhe ld
ĠCom p
at ter
is ter
ut ed
ĠA cc
Ġam ong
n ess
Ġm emb
Ġle vel
l u
Ġto t
Ġar ch
Ġro ad
Ġt em
Ġpol it
Ġf ield
g ed
Ġwrit ten
ar ch
th ing
ĠSt ate
b s
Ġpl an
Ġever y
p s
Ġ es
ĠP ort
Ġhal f
al k
Ġ2 1
ĠD ivision
amp ions
Ġt w
Ġ201 1
Ġrele ase
res ent
v es
es tern
im ent
ĠW ill
e ad
Ġbec ome
Ġa v
Ġf urther
Ġm ag
Ġ200 6
Ġcomm un
tend ed
ĠAcc ording
ĠAl though
ens ive
Ġw est
Ġh owever
Ġch urch
Ġ2 3
Ġday s
Ġstr ong
ĠCan ad
y le
it ar
Ġe ast
Ġfin d
Ġvers ion
ro y
le ar
Ġj oin
un g
b r
b ru
Ġ &
ot t
ri ed
ĠCh urch
Ġcomp et
Ġtit le
ĠC ount
Ġpartic ular
n e
p ite
m p
Ġl ow
Ġmil itary
Ġp ar
Ġd el
p ar
Ġbe h
ro du
ĠR oman
Ġor der
ĠLe ague
Ġauth or
Ġpro p
ĠM in
Ġdef e
Ġcontro l
Ġf oot
al y
ou ther
ĠS ong
ĠFe bru
outher n
ĠFebru ary
ĠP er
ĠG ener
Ġt imes
f ric
Ġg ave
Ġ2 2
Ġl ess
Ġ !
Ġs it
Ġ2 6
Ġreport ed
Ġmemb ers
Ġf r
Ġb and
ĠD yl
Ġv ict
ra w
ĠDyl an
Ġ2 4
ot s
Ġch ang
ĠGe or
Ġf ore
ĠA b
Ġn ort
Ġprodu ced
c hes
Ġ201 2
lev ision
Ġpro f
Ġe l
Ġtot al
a ugh
ic es
ĠP ark
ĠO ld
ail ed
er ing
ur s
Ġst at
ĠW est
l ine
ac es
Ġprodu ction
Ġpop ular
iet y
Ġf re
Ġde cl
cept ion
Ġt ropical
ĠB ar
Ġn ov
ron t
her n
oun g
Ġpro ject
Ġs ol
Ġfor ces
ĠJ ap
ition s
Ġpoin t
Ġchild ren
ĠJap an
Ġc ur
Ġc ult
Ġh aving
ĠP ar
Ġinclud e
re en
Ġcrit ic
Ġob s
Ġhist or
pe c
l er
Ġ2 8
Ġinv ol
Ġ X
al ion
Ġl ost
Ġinf lu
Ġg iven
Ġw ant
ĠAs s
in c
ress ion
Ġcount ry
s h
Ġt ro
Ġf ire
Ġsign ific
Ġrep resent
Ġman ag
a pe
om en
iz e
Ġ201 3
ĠS im
ch n
Ġs ite
om et
Ġse en
os p
Ġe ight
ĠD es
Ġprog ram
Ġm aking
ĠA m
ver s
Ġne ver
Ġf ar
ĠM iss
Ġst ated
Ġestab l
Ġp ress
Ġd et
ĠA fric
Ġcom b
ĠE d
ĠGener al
Ġb ody
Ġsh ould
Ġa ff
ĠC ent
ĠWh ile
Ġmat ch
it her
Ġf act
pl oy
Ġreturn ed
re et
is ing
Ġp at
ĠD av
ĠUn iversity
ren t
c raft
Ġf em
en c
Ġor d
Ġf t
Ġp ost
ĠP ol
our s
ĠThe se
Ġ19 0
ĠAmeric a
ĠE ar
Ġship s
Ġestabl ished
Ġs ound
Ġh ow
Ġis land
se qu
Ġear l
ampions hip
Ġpop ulation
Ġann oun
Ġre ached
Ġe qu
ĠSt e
Ġstru ct
ĠJ ack
Ġch art
Ġ5 0
Ġa way
re land
Ġs oc
ad es
ĠI reland
ab ly
Ġnot ed
ĠA ir
ig ade
ĠH a
Ġto o
pl ay
a ul
o pe
Ġf riend
Ġg od
Ġg round
Ġthrough out
Ġac ross
Ġdevelop ed
Ġthough t
Ġl ight
ĠE v
f ic
o x
Ġse ven
m e
Ġg en
Ġ2 7
ĠL ond
Ġint rodu
ĠLond on
Ġd iv
Ġus ing
Ġhim self
g round
Ġdevelop ment
ĠN e
ĠWill iam
Ġg ood
Ġdest roy
Ġl a
ĠF eder
f ord
Ġh ig
Ġl im
ain t
um ent
m ost
Ġf elt
es e
ĠM ich
Ġsignific ant
us ed
ree k
ĠAustral ia
y n
id ence
ct or
olog ical
Ġperform ed
Ġimport ant
a u
Ġc ast
w ork
Ġp ra
am b
Ġwrit ing
ĠAt l
Ġmil es
Ġc ou
Ġf ather
ar r
ord s
Ġte levision
o on
Ġ ide
in t
re am
Ġinter est
ĠBl ack
Ġvar ious
at ic
iv il
Ġare as
Ġhum an
im ately
Ġto ur
Ġn ight
Ġbl ack
on es
Ġf ull
Ġd ied
Ġty p
Ġw ent
Ġl ook
ut es
Ġpro t
Ġw at
Ġwh ite
ĠR ich
Ġr ad
ĠCh ar
are n
Ġact iv
Ġdo es
Ġsuccess ful
a ign
ĠR ober
Ġev ents
Ġne ed
ĠRe g
Ġs k
Ġl aw
ie f
ĠRo ad
Ġplay ers
Ġstart ed
g es
ĠR oy
ĠJ ames
Ġmod ern
Ġt en
as k
Ġm m
Ġdisc over
Ġse e
Ġfe et
Ġform ed
Ġc or
it ive
Ġpo em
t ain
Ġr ange
ant ic
Ġcon v
Ġperform ance
ĠCount y
Ġm ix
Ġh ouse
Ġst yle
ric k
Ġrel ations
Ġbuild ing
Ġb all
Ġcaus ed
Ġc at
Ġfor ce
n a
Ġa ge
Ġre ad
Ġpr im
Ġp ut
al d
st er
r ation
ĠE l
Ġv ill
Ġtr av
Ġte chn
ĠY ou
Ġc y
al th
Ġcre ated
a f
a el
ic o
ĠP al
Ġ18 9
Ġoffic ial
Ġnov el
c on
Ġ200 4
Ġsu ff
Ġ200 5
ubl ic
Ġent ire
is c
ĠT o
us h
Ġk e
og n
Ġab le
Ġpolit ical
e c
Ġf un
our n
Ġcharac ters
Ġs um
Ġg et
Ġother s
Ġrel ig
Ġco ast
ĠM ag
ĠH igh
Ġconstru ction
om b
Ġb ird
Ġbe gin
av es
ab or
in ess
ol l
Ġocc ur
r ing
Ġs on
Ġp it
Ġp ri
e pend
Ġc ert
ĠT own
ĠâĢ Ļ
d ay
y ing
Ġre d
ĠG l
ress ed
Ġon ce
amp le
Ġrem ained
ĠAn g
Ġloc ated
in ation
re st
it ing
as ing
ĠC are
Ġst e
ist ed
Ġbec om
Ġsur v
Ġprom ot
Ġbatt le
f all
Ġl ik
Ġn ational
ĠC or
Ġsc ored
Ġwork s
Ġdif fic
ĠKing dom
Ġdiffic ult
ĠH ist
ect ed
Ġprodu c
Ġme et
Ġcomple ted
ĠIs land
ĠAustral ian
Ġcamp aign
Ġtrad ition
Ġannoun ced
ĠS om
ĠC al
Ġr ank
ĠSe c
u ck
Ġst ars
Ġreg ion
at or
Ġf ig
Ġh old
Ġro ck
Ġgun s
ĠC up
ĠM or
ĠComp any
i ers
ri e
Ġpro cess
Ġlit tle
he m
Ġf av
Ġf ight
ĠRe c
Ġhigh way
Ġgo al
Ġinst ead
Ġhel p
Ġt re
iv id
ir c
Ġp red
ĠC ro
Ġv al
Ġgro w
Ġadd ed
it ted
am ent
Ġg l
rough t
Ġc ross
ĠO l
Ġle t
Ġle ast
Ġfollow ed
Ġf ac
Ġf ront
Ġre du
oun c
Ġ3 1
Ġpe ak
Ġappe ared
Ġb orn
Ġre v
qu ad
ĠK e
Ġkn ow
Ġkill ed
le et
Ġorigin ally
Ġmonth s
Ġ er
re g
Ġw ife
Ġcom ment
ell ing
ĠAr my
Ġs outhern
or se
ĠDav id
o ice
Ġc as
Ġl oss
ĠB ill
ĠGr and
Ġf if
en ced
al ity
Ġh urricane
ent h
Ġn uc
ĠH am
ri es
Ġw omen
Ġass oci
Ġ ident
Ġe astern
Ġag re
ĠMus ic
b o
Ġ2 9
ang u
Ġrelations hip
Ã ¡
Ã Ń
Ġm ass
Ġ200 3
Ġcrit ics
o ff
Ġm other
ĠS ome
Ġacc om
ĠFr ance
Ġevent ually
Ġa ward
ĠS up
ac y
Ġ4 0
Ġ18 5
Ġfeat ures
g r
Ġb us
le ct
id d
ĠO ther
Ġ201 5
f ield
Ġl ive
Ġbro ad
c om
Ġa ud
Ġcon d
Ġan im
Ġy oung
r ay
Ġt aken
Ġc ell
Ġst ri
ap p
Ġro ute
Ġrec ogn
Ġapp oin
Ġfour th
ĠT wo
Ġser ved
he re
Ġb ar
ul ly
ĠE x
Ä ģ
ot a
em y
Ġest im
Ġdam age
Ġprof ess
Ġl ack
Ġhe avy
ant ry
arl iam
i que
in al
Ġs w
Ġb ase
Ġe ither
Ġse x
Ġdec ided
ĠBatt alion
Ġa ver
os aur
ĠL ove
Ġpro ble
Ġv oc
ĠS w
ol ution
Ġcon dom
Ġcom mer
Ġbeh ind
Ġto get
ap er
az ine
Ġbelie ved
Ġtoget her
Ġm or
Ġse par
ĠRober t
ch ie
Ġsu per
Ġar g
il le
ĠG od
ough t
Ġplay ing
ount ain
Ġind ivid
ĠCare y
arliam ent
Ġv e
Ġimp ro
ign ed
iz ation
l o
Ġc reat
Ġex ample
Ġspec ial
ĠRoy al
ounc il
ĠM on
Ġal most
Ġcl os
Ġcl ose
Ġ18 8
Ġmov e
Ġac cept
em ents
Ġqu ar
Ġlead ing
hy s
ĠMe x
ĠEurope an
c ial
m ar
Ġb urn
Ġl angu
Ġas k
Ġgener ally
Ġserv ice
ĠFeder er
Ġto wards
Ġm ater
Ġro und
ach ing
Ġele ments
Ġopen ed
Ġf all
Ġh y
Ġar m
Ġs our
Ġb rought
Ġd ou
ĠS er
ur b
ĠB er
ĠBr igade
Ġweek s
Ġm iss
Ġn on
ĠIn ternational
Ġfin ished
ict ion
Ġc e
Ġc irc
ĠC r
ĠI r
ĠW ales
Ġr a
ill a
ric t
Ġla un
Ġs aw
ic ated
ce ed
Ġstud y
Ġfeat ured
Ġh ost
ĠV iet
Ġres pect
Ġair craft
i ation
Ġreg ular
ĠFl or
Ġd raw
id a
Ġen c
ir on
est s
Ġv ol
ĠWh ite
Ġgener al
Ġpoin ts
n ed
re ad
Ġre se
st on
ĠH en
et work
ĠP art
way s
Ġele ct
Ġdire cted
u ter
z e
oun ted
ĠCh ampionship
Ġcent ral
Ġprov ided
h ic
Ġa ction
ord an
Ġme as
v al
Ġf und
Ġin form
ĠA ct
ĠS y
ĠH ar
Ġ3 5
Ġup on
ĠPl ay
Ġdirect or
ograp hy
i ol
Ġw all
ĠG ame
Ġme an
Ġappear ance
e um
Ġw id
ĠF ollow
ĠJ ordan
um b
ĠE ast
Ġ18 6
Ġcol l
Ġearl ier
Ġm i
ĠF rom
od es
Ġy ard
ĠTh om
enc y
ĠP res
Ġse qu
Ġr ather
Ġk ing
Ġ201 4
Ġfl ood
Ġfem ale
ĠAtl antic
b it
in o
ir l
Ġind ust
med i
Ġcur rent
Ġtro ops
Ġlar gest
Ġvict ory
ĠFollow ing
or ing
Ġre n
Ġre ve
ĠJ ew
Ġde v
Ġsub sequ
Ġem ploy
Ġoper ations
ĠChrist ian
Ġparticular ly
ĠGeor ge
Ġmanag er
m ing
Ġa chie
Ġc ost
ĠM ad
ĠH ouse
ĠD ay
ĠHer o
c her
o id
ĠM ary
ud e
ĠRe p
Ġopen ing
Ġwant ed
st it
Ġbe g
ĠD u
Ġcon du
m b
el er
ĠR ed
ort s
Ġy ards
Ġev idence
i ber
Ġc ut
Ġre ason
ou ri
Ġr iver
Ġpro b
Ġex c
oun ter
ĠComm and
Ġnort hern
ĠFlor ida
Ġm ember
Ġst age
Ġins p
c ast
Ġl eng
ĠR ock
ĠSt reet
Ġ5 00
Ġout side
Ġcre w
Ġallow ed
Ġposs ible
Ġeng ine
o o
Ġf oc
Ġb i
Ġst ren
act ion
Ġsay ing
s el
Ġ ill
ĠM ed
ell ow
ĠOl iv
c ript
er ous
at ural
an ia
Ġh it
Ġh ours
Ġwh om
w est
Ġc ase
an ch
ent ial
Ġn omin
con om
at ors
Ġfor t
Ġde ter
Ġex ist
Ġ200 1
Ġwork ed
Ġreg ard
ĠMiss ouri
al t
ĠM ost
ĠO d
Ġpr act
Ġstren g
e al
at in
Ġm ot
am a
ĠB ra
Ġwork ing
Ġter rit
Ġresp ons
Ġleng th
c ent
nd er
ĠM y
Ġnew s
Ġre b
os ition
ĠG al
art ment
Ġdef end
bo ard
Ġmater ial
at a
Ġb ur
Ġm ach
Ġg old
Ġpo or
Ġdesign ed
Ġf ree
Ġl ove
ĠB ay
ĠP aul
Ġse em
um p
Ġr ul
Ġne g
ĠTe ch
th od
Ġst ay
ĠW al
and ing
Ġpra ised
u el
ĠC o
ĠM ark
Ġfor ced
ĠF irst
ight s
ish ing
Ġrem ains
ĠInd ian
Ġav ail
Ġfoot ball
o res
ĠB est
Ġ18 7
Ġ197 0
ĠPh il
Ġb ill
an a
Ġth ink
Ġst ation
Ġwind s
ĠMich ael
l ess
Ġt reat
Ġc op
ĠW il
Ġqu ick
Ġgo als
Ġincre ased
Ġcontr act
he ast
en ed
Ġp ast
Ġd i
ap s
Ġprevious ly
ĠÂ £
i us
v est
ic a
Ġg re
ag o
ĠE gy
Ġab ove
Ġrepl aced
ĠEgy pt
g g
u le
x as
ĠC ap
ĠB ut
ver t
Ġso on
Ġinv est
ĠRich ard
Ġc ivil
Ġl y
ĠB us
Ġv iol
ĠDes pite
Ġbus iness
Ġh on
Ġinter view
Ġm er
Ġth reat
ess ion
Ġ200 0
rib uted
Ġwrit er
ĠÂ °
Ġcommer cial
ĠHen ry
er ved
as ion
Ġm ph
ir th
ĠH ill
Ġun its
hen s
ĠCanad a
Ġestim ated
Ġc lear
ar a
ĠS an
Ġ199 0
Ġacc ount
ann ed
ĠQ ue
Ġes c
Ġquar ter
Ġs omet
Ġp ain
ĠK h
Ġclaim ed
Ġjoin ed
ĠJapan ese
Ġhig hest
u ation
Ġt rib
ut ive
Ġpl aced
Ġspec ific
Ġsur f
ĠBro wn
ĠOld ham
Ġinvol ved
w h
y e
Ġ z
Ġm ust
ĠT imes
Ġl o
Ġsign ed
Ġdisc uss
Ġsuggest ed
ĠPres ident
ĠT or
ĠV ir
Ġpart s
ĠDe p
Ġcour t
Ġw estern
om s
et t
Ġint ens
Ġ18 3
ĠOliv ier
B C
it er
Ġpro per
Ġle ague
cl us
Ġits elf
Ġpr iv
ĠCar ol
ĠViet n
l ic
Ġp ers
ĠD r
ĠW he
ĠL ater
ist ic
wo od
Ġob ject
ĠInd ia
Ġaver age
ĠMex ico
t t
Ġt aking
th let
Ġch ange
Ġsh ot
ĠAr ab
Ġavail able
ing ton
ĠS chool
ol ic
os ing
ĠG overn
Ġcom e
Ġsc ene
ĠMc C
Ġintrodu ced
Ġcy cl
v ing
Ġf ly
ĠI m
Ġwh ose
Ġrecord ing
Ġtrans port
Ġter m
Ġvill age
n ow
it a
Ġin j
Ġh ous
ĠC ong
ac hel
Ġhe av
ĠV al
Ġtrans fer
Ġbro ther
ĠThom as
b or
n es
x imately
ĠH all
ĠV ar
Ġrelig ious
ĠIr ish
re ady
Ġp en
le cted
Ġr ace
qu ar
ib ility
Ġbre ak
por ary
Ġtrav el
A F
b and
on st
Ġs low
Ġto ld
Ġd on
Ġn etwork
ac ing
ĠP ac
Ġ3 6
ĠBrit ain
Ġshow s
Ġ196 0
Ġdam aged
r ated
Ġ -
Ġn ames
ĠC ard
Ġst op
ĠH el
Ġr ail
pe cted
Ġex ec
ab it
Ġrem ov
Ġincre asing
Ġturn ed
ĠRep ublic
Ġm ult
Ġl ines
Ġg ive
ĠH urricane
ĠTh at
Ġsub ject
Ġn ine
ĠM any
ĠG reat
Ġdes pite
ĠSc ient
Ġnear ly
ĠGu itar
Ġappoin ted
Ġs ize
Ġp ie
ĠS m
ĠN ot
one y
Ġfe el
Ġcomple t
ĠZ eal
Ġcommun ity
Ġstruct ure
ĠZeal and
Ġ ?
Ġo p
Ġp hys
Ġd ate
Ġh ard
ĠS un
Ġe conom
ell ed
Ġdis s
Ġind epend
Ġsur round
Ġpass ed
Ġed uc
a ult
Ġin ternational
Ġp ur
ĠM ac
id ing
ĠN Y
ĠG old
ru ction
ĠUn ion
ron ic
Ġestab lish
Ġlit er
Ġinit ially
pec ially
Ġcert ain
he ad
Ġwith d
Ġal ready
Ġ18 4
Ġim medi
Ġgr ad
Ġgo ing
Ġsoc ial
Ġf ailed
Ġm ight
ĠA c
ĠR ou
um e
Ġde al
Ġr ap
Ġch ap
ĠCh ines
Ġdis play
Ġ6 0
Ġass ist
ann a
Ġwin ning
Ġarch ae
ĠEar ly
ĠChines e
Ġst ates
ĠE ver
Ġtr aining
hed ral
Ġ4 5
Ġsc ore
Ġacc ording
Ġcap ital
Ġocc up
Ġty pe
Ġes pecially
Ġlangu age
Ġprob ably
ĠPac ific
Ġf ood
ar ily
Ġd oc
ĠM ont
ĠE m
if f
Ġ200 2
Ġmin or
ĠCol le
Ġiss ue
Ġdeb ut
Ġfore st
f or
Ġt est
Ġw ood
Ġf ut
al ed
Ġm ale
Ġd augh
ur t
ĠP re
Ġstud io
ĠII I
t ies
Ġto w
ĠM os
Ġcon n
ĠO s
Ġinclud es
Ġsp ent
Ġarr ived
Ġord ered
ĠHist ory
ĠWhe eler
Ġ Ã
ĠA g
ĠA wards
ĠS l
ĠF ilm
ĠJ in
Ġar my
Ġen ough
Ġrem aining
Ġpartic ip
Ġvis it
ĠCanad ian
on se
Ġf ail
Ġm em
ĠC ath
Ġfor ward
ĠN avy
od ies
Ġmix ed
Ġsomet imes
at ory
Ġc ru
ul a
ĠU K
Ġcomple te
Ġappro ximately
Ġreview s
Ġrequ ired
ĠPe ter
f ect
n el
ar ies
Ġp ot
Ġl atter
ĠC reek
ay s
ĠR es
ul ated
il ities
ĠS ing
ĠR ose
ĠD on
Ġr ain
Ġab s
Ġcent er
Ġrem ain
fer ence
ĠAss oci
ĠAfric a
Ġbegin ning
h ib
ul f
ĠL aw
Ġbl ock
ĠAng el
e th
t ation
Ġl ower
ate g
Ġdec ision
Ġant i
Ġlim ited
en es
Ġd ro
st e
ch ol
Ġus ually
ĠAr t
Ġaddition al
Ġchang es
ĠReg iment
it es
Ġd en
ĠM o
ĠR achel
ĠJ er
ri an
Ġj ourn
Ġbet ter
Ġind ic
Ġpres ident
Ġrun ning
Ġresp onse
ĠVir gin
it z
ĠS oc
Ġk ey
Ġpos itive
Ġend ed
Ġlar ger
Ġstud ents
ĠSup er
Ġw oman
Ġm ention
ĠN ort
Ġde ad
Ġsupport ed
Ġmag azine
quad ron
Ġto uch
ĠA ward
ly mp
ĠP enn
ĠO lymp
Ġnot es
ĠSt ud
ric s
ĠSc ott
Ġpol ice
Ġdep ression
Ġpress ure
Ġw ide
Ġc al
av al
ĠV er
Ġpo et
ĠChar les
Ġbird s
g l
t r
ed y
ent y
Ġsh own
Ġ199 5
Ġqu est
Ġprev ent
ĠBill board
as es
ap h
ak er
Ġsp ace
Ġrel ated
Ġfut ure
b ack
Ġ3 8
Ġ198 0
Ġprov ide
Ġdefe ated
Ġfif th
g o
r d
u f
Ġf ace
ar m
Ġh om
ĠT V
ĠT om
st ant
ĠP ri
um ents
Ġdiscover ed
i h
le g
ĠT er
ow l
Ġst aff
ĠF ort
Ġsy n
Ġfeat ure
Ġtem per
ĠRou te
m en
s s
Ġan c
Ġ8 0
Ġpri or
Ġbecom ing
c o
u als
Ġa ut
Ġb irth
Ġd oll
id s
ir t
and s
if a
m itted
Ġc m
ĠW estern
Ġse ction
ĠO ff
ri age
Ġex am
Ġsmall er
Ġfre qu
g ely
in ct
on c
Ġin tended
ĠA pp
id ents
ber t
ab y
Ġsc reen
Ġdis p
Ġgroup s
Ġide a
ĠScient ology
ar ing
Ġcon clud
ĠIn f
ish op
Ġper cent
Ġthem sel
Ġmost ly
ĠFr ank
Ġmet res
ĠHa ifa
ste in
Ġthemsel ves
a ut
n ey
or ial
Ġf leet
an ies
ĠT ur
ĠH ot
ag on
qu are
ĠSt ar
Ġ201 6
ĠY ear
Ġmin utes
Ġcapt ured
Ġrefer red
Ġlik ely
Ġrese arch
Ġsurf ace
Ġw ord
Ġf ir
en on
Ġd omin
ĠS ince
ch ing
ĠL a
if orn
Ġoff ice
Ġlar gely
Ġmus ical
rie f
ĠCro at
Ġprofess ional
Ġproble ms
ĠAssoci ation
d own
Ġf low
ĠP arliament
ĠF I
ĠL ight
ra el
Ġ7 5
Ġent ered
Ġmed ia
e e
g ar
Ġs em
Ġm akes
Ġcont em
Ġmov ing
Ġam ount
Ġbroad cast
n ers
Ġc er
Ġd er
ĠS ov
om m
Ġle arn
Ġcont ains
Ġem b
Ġconstru cted
ĠPort ug
Ġrad io
quar ters
g u
u k
Ã ³
ou l
Ġl ink
ĠO per
se c
Ġen s
Ġ199 9
Ġke ep
Ġsum mer
ĠCal iforn
b ers
is es
Ġp air
Ġm oney
ac ted
ĠR uss
ĠJ e
pp ed
pl es
Ġgu itar
Ġeffect s
Ġce le
i os
t o
v ille
er gy
it te
is ions
an ish
Ġn ature
ĠC ouncil
Ġst ories
ĠH ow
ce an
Ġse a
Ġv oice
Ġgr ant
ĠIs rael
Ġ195 0
Ġmajor ity
Ġlist ed
Ġobs erv
ĠEar th
Ġrank ed
ĠJew ish
u z
Ġs elf
Ġp aren
Ġl ay
Ġad op
Ġcre ate
Ġarr ang
Ġexper ience
ĠGal vest
ĠGalvest on
d en
u ing
ed ing
ĠM et
ĠW ood
ĠO tt
Ġle aving
Ġcrit ical
Ġth us
ĠCh ic
Ġprim ary
Ġfav or
i res
l or
Ġs chol
Ġl ived
ur ity
ow ler
Ġal ways
ĠAn other
Ġcons ist
Ġloc ation
yl v
min ist
Ġgod s
Ġagre ed
Ġly rics
i est
re ak
Ġb rief
Ġp ay
Ġl ab
im ate
ĠF in
ĠG o
av en
Ġr are
te en
Ġcomp l
Ġfilm s
Ġrun s
Ġoffic ers
Ġcontro ll
Ġlaun ched
ĠCaliforn ia
p ing
p ool
t ar
Ġc oin
ĠS erv
ĠC amp
ĠB ey
Ġcol on
Ġset t
Ġteam s
Ġcult ure
Ġfriend s
osaur us
Ġquick ly
ĠCath olic
ĠH ol
ch ange
Ġme ant
Ġepis odes
ĠBr ad
Ġmin ute
hest er
Ġprop osed
Ġoccur red
o or
p an
r or
ĠA le
ur g
ĠI f
art s
ĠU p
Ġwhe ther
ok e
ke y
Ġpre m
Ġatt r
Ġass igned
Ġacc ess
Ġset tle
Ġincre ase
Ġequ ip
k an
z y
Ġs at
at ively
Ġf ans
Ġp ian
ĠS aint
Ġv ot
ill ery
Ġtr aff
Ġad ap
Ġform s
ific ation
Ġappe ars
Ġdefe at
Ġchang ed
Ġdestroy ed
Ġtraff ic
Ġt ons
ĠM r
im um
ĠN ic
ĠN ix
ab ility
Ġ4 00
Ġsc ript
Ġcomm ission
Ġear th
Ġlong er
osp ital
ĠCent ral
Ġmean ing
ĠChic ago
r up
as y
ĠR oss
Ġj ob
Ġ7 0
Ġthem e
Ġnum bers
Ġ194 0
Ġconc ern
ĠBatt le
Ġsold iers
Ġcompet ition
s is
Ġm om
Ġre ach
ad ed
ĠH aw
and on
Ġle ave
Ġtr ade
ru it
Ġbo und
ĠAl ice
ve y
Ġcar ried
ony m
Ġaward ed
Ġfoc us
ĠNort hern
Ġcele br
Ġh op
Ġg irl
ĠL atin
und red
Ġ3 3
Ġ199 8
ĠEn ter
ĠQ u
Ġcondu cted
Ġpriv ate
Ġdaugh ter
Ġs il
Ġc red
Ġn atural
ĠL ou
Ġde ep
ĠO ver
ber y
Ġrecord s
Ġunder st
Ġsubsequ ently
Ġnews p
Ġc ause
Ġto urn
ĠM ey
Ġan aly
Ġr an
ort un
Ġpl ans
Ġ3 00
Ġun c
ĠV illa
ĠSc ot
Ġconsid er
Ġ193 0
Ġfight ing
o ir
Ġt akes
it ect
Ġb ord
ar i
Ġd ed
ĠM er
iv a
ĠD j
Ġsh oot
ĠAl kan
Ġover all
Ġ199 3
Ġinflu ence
ĠPol ish
ĠSec ond
Ġcomment ed
Ġindust ry
Ġ +
Ġc le
Ġb omb
ĠM a
us band
ĠP at
ĠF ore
ĠL iver
ru ct
ĠIt al
Ġser ious
Ġfin ally
Ġele ction
Ġbr ing
Ġconc ert
Ġask ed
ĠNix on
ĠLiver pool
t ained
ĠT ay
Ġe mer
ĠF orm
Ġde g
Ġk il
Ġ3 2
Ġcomp ared
Ġwho le
Ġim m
Ġme thod
Ġend ing
Ġgre ater
h ou
o ly
s en
Ġd one
ĠB C
ĠG ro
Ġun able
ĠIt s
ĠSe ver
ĠTe xas
ĠChrist m
Ġmar ried
Ġposition s
Ġdou ble
stit ute
w ell
in ent
Ġo ur
Ġin n
an ced
ĠT re
ĠT our
ac hes
ĠL ady
ers et
Ġup per
Ġcan n
Ġbuild ings
ĠSom erset
g ian
Ġt ar
Ġs us
Ġc he
Ġd ram
ĠT ropical
Ġth ick
ĠM art
Ġg ot
um n
ill s
Ġy et
Ġcent re
Ġear ned
Ġfl ight
ank s
ĠMos ley
un t
Ġc ounter
Ġb ig
Ġl iving
ĠC our
ĠM il
ĠTh ree
Ġpart y
Ġen v
ail y
Ġ199 6
Ġ9 0
Ġac qu
Ġperson al
Ġstand ard
Ġiss ued
Ġnuc le
Ġbeg ins
ĠBus ch
Ġrap id
g en
Ġp urch
ĠT enn
Ġth row
Ġl og
ĠM ount
Ġk ind
ĠSt r
Ġbo x
Ġter ms
Ġdirect ly
Ġmark ed
Ġmark et
itte e
d le
Ġ ult
ĠS k
am er
ĠB el
ul ted
ĠL ake
Ġhe ro
Ġhe alth
Ġsc enes
ail s
Ġmov ement
Ġbook s
Ġmar riage
ĠSp anish
Ġstat us
ĠTay lor
ĠChristm as
Ġd om
ĠB ack
ĠF owler
Ġcon cept
Ġhel ped
Ġport ray
Ġsl ight
ĠSever al
Ġ und
Ġt ell
Ġb atter
ĠJ o
um ed
ist ics
Ġpl anned
Ġsc hed
Ġstart ing
Ġattack s
Ġschool s
Ġexper i
ĠAfric an
Ġsuff ered
Ġtradition al
Ġinform ation
Ġo pt
it or
is er
Ġd ig
Ġd ark
Ġg iving
ĠP it
all ed
ĠSt orm
Ġj ud
Ġspe ed
Ġperform ances
Ġfig ure
Ġassoci ated
Ġinsp ired
ĠInf antry
A S
m a
Ġ x
it ude
Ġd ivision
Ġh usband
ĠT w
ĠS am
ĠJ ane
Ġcl osed
Ġab andon
ath an
ĠAr ch
Ġlead ers
emb ly
Ġpresent ed
Ġcondom s
Ġsour ce
ĠPart y
Ġmach ine
ĠSov iet
a wn
Ġm ur
ĠF oot
Ġv ia
Ġpres ence
Ġgreat est
Ġinit ial
ĠSer ies
Ġra ised
Ġdeter min
I I
i ant
m ium
Ġw ound
ĠC ross
ĠB ob
Ġex cept
Ġun it
Ġro om
ĠV ict
Ġus es
Ġwrit ers
Ġcontin ue
Ġnear by
augh t
ĠPar is
ĠCarol ina
Ġeduc ation
Ġdoc ument
ĠRose bery
ĠVirgin ia
Ã³ n
ylv ania
k s
it ation
Ġn orm
ĠB oy
ĠL ive
Ġpl ot
ra f
Ġun s
Ġdis m
Ġim age
iam i
Ġcolle ction
Ġcover ed
Ġcycl one
ĠPenn s
c ing
or ation
Ġh undred
Ġre in
ol k
ĠB en
ĠJ am
ĠJ ust
Ġch all
Ġcomp osed
Ġwe ap
ĠAn t
Ġcomple x
Ġann ual
Ġserv ices
inc ip
ĠQue en
ĠColle ge
er ve
at re
Ġb odies
Ġre ally
ĠC er
ĠR ob
ew ay
Ġex tended
Ġ199 7
Ġnum erous
Ġpol ic
Ġcommand er
Ġcat hedral
Ġproduc er
Ġfig ures
Ġterrit ory
onc Ã©
ĠBey oncÃ©
b ar
j oy
k en
Ġt or
Ġf ell
Ġp ark
Ġp ath
ic ted
Ġth ings
ĠS ix
ĠM iami
et ic
ag ing
Ġde pend
ĠO pen
ess a
Ġen joy
ĠGerman y
ĠMus eum
Ġprote ins
Ġvoc als
r ical
er be
and ed
ĠN ations
Ġse v
if t
Ġ3 9
ous ly
Ġpre p
Ġsome thing
Ġoper ation
ĠCl ub
Ġwat ers
an z
an as
ĠThe ir
est ival
Ġcomp anies
ĠTh rough
Ġhigh ly
Ġattack ed
Ġattempt s
Ġrequ est
Ġmor ning
Ġstreng th
Ġinvest ig
ĠServ ice
n y
Ġt alk
Ġre ject
ad mium
ĠI ll
Ġas pect
and er
ĠIn n
Ġdis e
Ġfin anc
Ġtrans l
Ġmet al
Ġconf ir
ĠPr ince
Ġer a
Ġindivid ual
Ġimmedi ately
ĠPenns ylvania
l im
Ġp il
ĠS ur
ĠS quadron
ad emy
ur ies
Ġst one
ĠG ames
ĠIn ter
ap o
Ġne cess
Ġinter se
Ġinc or
Ġart ist
Ġdist ance
Ġallow ing
Ġpower ful
Ġsit uation
Ġnuc lear
Ġremov ed
Ġpian o
N A
m on
p ly
v ement
Ġh abit
ol f
ĠH um
ĠW ater
Ġse lected
ip p
Ġrec over
land s
Ġoff ered
ib ly
Ġstud ies
Ġart illery
Ġins ide
Ġadv ance
Ġvar iety
ĠJack son
Ġneed ed
Ġpeak ed
ĠScot land
T V
Ġh ot
Ġn ative
ch an
Ġat tend
ĠJ ose
Ġr ate
ĠU nder
Ġ4 2
Ġ18 2
Ġme ans
Ġ199 1
ĠChr is
Ġcount ries
Ġhead quarters
Ġattempt ed
ĠSom al
Ġcop ies
p ole
Ġs af
ro l
ĠA I
ad ium
im ony
et her
ĠL os
Ġse arch
ri a
ant a
Ġk ick
ĠCh ina
Ġsc oring
rib ution
Ġpr incip
Ġco ach
Ġtrack s
Ġhand s
Ġarch itect
Ġcas ual
Ġrespect ively
Ġrespons ible
Ġpur p
tr ack
e en
Ġp urs
Ġm ole
ĠM ajor
Ġr ule
ĠO ut
Ġ4 7
Ġsy mb
Ġdescrib es
Ġimp act
Ġadv ant
Ġappear ances
ĠAnd erson
ĠBo th
Ġgen us
Ġhig her
Ġwid ely
ĠDep artment
Ġtouch down
c er
h a
ĠC rit
ce nd
ĠD an
and id
ĠN or
Ġte xt
ang er
Ġsp ir
ors hip
Ġ199 2
Ġset s
Ġcontro vers
Ġcour se
Ġobs erved
ĠCor ps
Ġsex ual
ĠBra at
Ġheav ily
ĠFoot ball
o f
re y
re me
Ġp ick
ou d
ĠA re
Ġad ult
Ġ4 4
port s
Ġ199 4
Ġrel ief
Ġam b
Ġbel ow
Ġph ot
Ġmid dle
Ġmeet ing
Ġredu ced
ĠAle x
Ġx enon
in y
Ġin tern
ic ient
Ġan g
ĠL i
ĠL ike
Ġpl at
Ġad minist
Ġres ulted
Ġbo y
Ġsec ret
Ġact ive
Ġsing er
Ġmat ches
Ġsix th
ĠMin nes
rick et
Ġaud ience
Ġconclud ed
ĠMinnes ota
a en
c ar
g a
l ict
s hip
Ġs al
ĠT em
ĠT ime
il s
ak apo
Ġtr ue
Ġland s
ĠFr anc
ink el
Ġactiv ity
Ġactiv ities
Ġcomplet ely
ĠVict or
Ġ ess
is her
ĠS outhern
ct s
Ġst ating
ĠD el
se nd
Ġman aged
Ġopp ortun
ĠCent er
ĠTown send
Ġreve aled
Ġcontem porary
l ike
at ives
Ġf ill
Ġh our
em s
oc r
ĠSe a
Ġqu ality
Ġgr aph
ĠCol on
Ġref used
Ġlevel s
Ġdecl ared
Ġtre es
Ġsepar ate
ĠItal ian
c ause
i ated
Ġb ad
ic ation
ĠS ir
ĠM idd
ĠF inkel
ĠL ong
olog ist
Ġbl ue
ann el
Ġconst it
ĠBe cause
row d
ĠFor ce
Ġdr um
ĠWal pole
Ġquest ion
ĠHaw ai
ĠMey erbe
ĠFinkel stein
ĠMeyerbe er
M S
i qu
in ing
Ġto day
le ment
ĠT essa
ĠS ol
if y
ap ed
Ġun iversity
per or
Ġrec ent
Ġshe ll
ath us
Ġbl ood
Ġback ground
ĠSh iva
Ġfeat uring
Ġinst it
Ġcar ry
Ġmod el
Ġappro ach
Ġcontr ast
Ġhistor ical
Ġtyp ically
Ġparen ts
a res
Ġ iron
Ġa ctions
Ġp aper
ĠC ast
Ġr is
op h
Ġex pected
Ġ5 1
ĠY ue
Ġ7 6
Ġdesc ript
Ġiss ues
Ġcond itions
Ġmult ip
ĠSm ith
ĠSoc iety
ĠOtt oman
ĠNic ole
u ff
Ġt ax
he w
Ġw ing
al ty
ic an
Ġre ception
ĠM ill
ĠB et
ut ch
ĠW ild
ĠL it
Ġr hy
Ġcomp os
ra wn
Ġplay s
Ġatt ention
Ġwe aken
oin t
Ġpe ace
Ġent r
Ġmain ly
Ġeff orts
Ġbecom es
Ġhous es
for ce
c le
Ġw it
Ġp ow
Ġn ation
ĠB alt
ĠJ im
ĠE mp
Ġ3 7
Ġres idents
Ġoff er
ound s
Ġwe bs
Ġspec im
Ġsub s
Ġgr and
Ġem ot
Ġbro wn
erv ation
Ġstru gg
sh ire
ĠHigh way
Ġve hic
ĠBraat hens
g ing
r ate
Ġs ense
is l
Ġl ot
Ġn arr
ad o
ĠD am
Ġcon sec
Ġact ually
Ġcall ing
Ġtit les
Ġmag n
Ġsound track
ĠHa it
uf act
b ed
w are
Ġt ask
he t
ed s
Ġh air
ĠD ire
ĠN es
ell ig
Ġro y
Ġro les
Ġseason s
Ġwrit e
ĠJohn son
ĠBl ue
ĠAd am
Ġstru ck
Ġdem onst
Ġaccept ed
Ġachie ved
Ġcann ot
ĠCour t
ĠIll ino
u ated
Ġa thlet
Ġw ear
Ġb ene
ic ip
Ġl if
im in
ĠD em
ĠCh arl
Ġrec omm
Ġres c
Ġinst r
Ġfam il
ues e
Ġresp ond
Ġprote in
Ġview ers
aren t
Ġvoc al
Ġpract ice
ĠVietn am
ĠPortug uese
h ood
on ents
Ġc orn
Ġc rowd
Ġf iction
Ġth ous
Ġbe at
ĠF ey
ain e
ĠJ ul
ri al
ap pen
Ġ4 8
ĠTh under
Ġ18 1
Ġsc ient
Ġele v
Ġav oid
Ġprim arily
Ġsequ ence
ĠGovern ment
ĠAc ademy
Ġc hem
it ual
ĠT y
ĠT od
Ġl b
ĠC ivil
ĠG ar
ĠO f
ĠE r
ess ions
Ġ5 2
Ġbo ard
Ġsp read
ĠRe v
Ġele cted
Ġ198 6
ven ue
Ġinf antry
Ġown ed
ĠCol umb
Ġtw enty
Ġcomb at
Ġtyp es
Ġslight ly
d ing
h old
w rit
Ġs ales
Ġs ister
an es
Ġm ax
Ġn in
ac her
ĠR am
Ġal tern
ul ations
ĠL and
Ġpl ant
ĠK r
Ġsc ale
Ġoff ensive
Ġsp ort
ĠNew s
Ġinc hes
ĠEng ine
Ġ15 0
Ġexp ressed
Ġconc ent
ĠSp ain
Ġright s
Ġnort heast
Ġaff ected
ĠCap tain
Ġw ords
Ġh orse
ĠM og
ĠH orse
ul pt
est ic
Ġ3 4
Ġro ugh
Ġ18 0
Ġsc ulpt
Ġne igh
ĠRe view
Ġshow ed
Ġoffic er
ah a
ograp h
Äģ d
ceed ed
cript ion
ĠLou is
ĠGro up
b ury
u it
v in
Ġs out
Ġs pl
Ġw alk
Ġp up
ro ad
ĠT int
ĠM al
us hed
ĠW els
ĠG reen
Ġsu c
Ġab ility
ĠY oung
Ġthem es
led ge
ĠZ hou
Ġcount y
Ġbatt alion
Ġwind ow
Ġcomb ined
ĠSec ret
ĠVar anas
ĠLit tle
ĠEmp ire
ĠTint in
ĠWels h
ĠVaranas i
F A
h ouse
l ight
n h
Ġf ruit
ar row
Ġp un
ing u
Ġre ar
Ġsu st
ĠTh ough
Ġpre c
Ġtit led
Ġprog ress
ĠAnd rew
Ġcult ural
bit t
onym ous
Ġincor por
Ġcasual ties
ĠNes bitt
B A
m un
Ġs quare
Ġm ountain
ĠM anc
ĠB urn
ĠD ist
em ic
um ber
Ġrem ark
Ġprodu ce
Ġcontin ues
Ġsay s
Ġearl iest
ĠEv a
iron ment
Ġexc av
ĠOd aen
ĠAngel es
Ġmention ed
Ġanc ient
Ġnewsp aper
Ġmur der
ĠCer es
Ġrecomm end
ĠOdaen athus
M ont
e ter
Ġf ully
Ġin h
Ġd yn
Ġh ol
ĠT urn
ĠS arn
ĠS pec
om er
ĠB ook
ĠH ome
et ts
os es
Ġch ampionship
Ġman ufact
Ġact or
Ġart ists
Ġdist inct
ĠCon f
ĠComm un
ped o
ĠTr ans
Ġresult ing
Ġ192 0
Ġauthor ities
Ġinflu enced
ĠRec ords
Ġflood ing
ĠDu Mont
ĠOlymp ic
Ġcer em
Ġadop ted
Ġdise ase
ĠSarn ia
e v
g al
en ant
Ġm ission
ut ions
ĠR ad
Ġreport s
ĠAd d
ĠOr igin
Ġbas is
ĠPer Ã³n
Ġrepresent ed
wh ile
Ġadvant age
ĠIllino is
b ird
n own
Ġto ward
Ġh ar
Ġre pe
ĠB ol
Ġal one
ĠJ os
ĠO m
Ġcom ing
ov ic
ĠAr g
Ġass ault
Ġapp arent
Ġdef ense
Ġqu al
Ġgr ass
ĠCon t
hel m
Ġlet ters
Ġtow er
ĠApp le
Ġtourn ament
ĠThunder bird
ĠMog ad
ĠManc hester
Ġs ides
nd s
or us
Ġre ign
Ġre act
ĠS R
ĠS al
im b
ĠF red
ĠW ash
Ġex hib
Ġk akapo
Ġar med
Ġwork ers
Ġrel atively
ĠDe f
ock s
Ġfound ed
Ġbr idge
Ġalong side
Ġocc asion
Ġnorth west
Ġenc our
Ġwithd raw
Ġtor pedo
ĠWash ington
l in
m ir
Ġc admium
Ġf a
ro om
Ġl osing
Ġn est
Ġn arrow
ĠP ost
ĠF our
ĠD ou
Ġat tended
ĠO cean
Ġy ellow
Ġcont ain
Ġme chan
Ġ198 8
Ġdire ction
Ġter min
Ġoffic ially
Ġed ition
Ġtri ed
Ġorgan ized
Ġcapt ure
Ġleg al
Ġindivid uals
Ġill ust
Ġtransfer red
Ġm ess
Ġm ile
ĠA v
ĠW ay
os en
Ġpro ved
ab ama
ell er
og ue
Ġper man
ĠAl abama
ens ion
Ġact ing
Ġeff ort
ĠCl ark
ĠPro du
Ġrequ ire
Ġofficial s
Ġmeas ure
Ġphys ical
Ġsurround ing
Ġded icated
ĠMidd le
ĠOm aha
A A
m es
Ġc andid
Ġd u
Ġth ir
Ġl ives
Ġe ye
ĠM D
Ġst arl
us ion
Ġr ang
ric ult
Ġen ergy
Ġpr in
Ġdo ing
pr ise
Ġem ph
Ġed ge
Ġext r
Ġconf lict
Ġcou ple
Ġrain fall
i en
r ight
w en
ad ing
ad el
im ore
ish u
Ġpre par
ĠRe ception
Ġfollow s
Ġdesign ated
ĠMe an
Ġshort ly
Ġposs ibly
Ġpat tern
Ġdiv ided
Ġintens ity
ĠHel ms
Ġfinanc ial
ĠMogad ishu
m ond
Ġ ir
Ġf aced
Ġp aid
Ġh un
ĠS ch
ol s
ĠH al
ĠF am
ĠF ant
ĠL ord
Ġv o
Ġv en
Ġsh ape
Ġy our
Ġy oun
Ġ4 9
Ġim ages
Ġ6 5
Ġalbum s
Ġ196 4
Ġsim ply
Ġwin ter
Ġold er
ĠEd ward
Ġsoc iety
Ġsour ces
ĠWil helm
Ġdetermin ed
ĠInn is
Ġmax imum
l ied
m it
r ane
Ġa id
Ġp le
ĠC ons
Ġon to
ĠM ax
ĠB re
Ġst ep
ĠN C
Ġr at
Ġr aid
Ġcom edy
Ġch ief
Ġpl aces
ĠK ent
ors es
ug by
ĠInd epend
Ġbro ken
Ġport ion
Ġbeh av
ĠAss embly
Ġke pt
Ġfun ction
ĠHist or
Ġpie ce
Ġdiss ip
Ġpot ential
Ġjourn al
uz z
Ġbord er
ĠJose ph
Ġemph as
on na
Ġs ac
Ġc ities
ent al
ig an
us e
ĠF leet
ĠJ up
ĠJ ourn
Ġun ivers
Ġad vert
Ġchar ge
Ġmov ie
ĠComm ission
Ġprote ct
Ġarg ued
ĠMcC all
S tation
r id
Ġw ild
Ġf eder
Ġf olk
Ġm ind
Ġth r
ad a
Ġg rew
ĠR ih
ĠF er
Ġhe art
op er
Ġcont ent
ĠV an
Ġcol or
Ġdep th
Ġsuggest s
Ġauthor ity
Ġsit es
Ġproject s
Ġmanag ement
ĠHam els
ĠPlay Station
Ġdom estic
ĠBalt imore
ĠArg ent
ĠRih anna
Ġw or
Ġw ave
ed ar
at ops
Ġp aint
ro wn
Ġd ut
le ction
il ed
ac ement
Ġg ained
ĠB owl
ĠR h
ĠD est
ĠG reek
Ġro ll
Ġsc ience
Ġwe ak
Ġ6 4
Ġpr ison
Ġmus eum
Ġbel ong
Ġdep art
ĠComm on
Ġleg isl
Ġcaus ing
Ġtw ice
Ġcritic ized
Ġstruct ures
Ġlet ter
ĠVal ley
Ġtar get
Ġult imately
Ġsched ul
Ġentr ance
Ġwebs ite
Ġroy al
e x
j e
k are
l ies
Ġ unk
ed kare
Ġf it
Ġf ung
en ing
an i
ĠT ru
ent ed
ent ure
ĠC ra
Ġv ess
Ġsh are
Ġcont aining
Ġne ut
Ġform ation
Ġext ra
Ġresult s
ĠWe ek
Ġdeb uted
ĠPal est
Ġdou b
Ġhom es
ĠDj edkare
ĠJup iter
m ission
w ide
Ġh ospital
ĠM ass
ĠW rit
ĠG all
Ġde ploy
Ġch osen
Ġk g
ast y
cl aim
ĠV en
Ġag g
Ġdef ence
Ġdef ensive
Ġ194 7
Ġart ic
ĠCon stant
Ġbatt les
Ġfore ign
ĠTor res
Ġop in
Ġlab el
V D
b our
Ġc ore
Ġin ch
Ġm outh
Ġm aster
ĠS en
ĠS ar
ĠH ib
ĠH orn
ĠD VD
ĠN ight
ĠL is
ĠL ew
um es
ĠE astern
res h
ack s
ĠK ore
Ġsec urity
Ġbr igade
Ġprom inent
Ġstand ing
Ġrefer ence
Ġfr ag
Ġgrow ing
Ġanim al
Ġbur ied
Ġgrant ed
Ġabandon ed
Ġdism iss
Ġreject ed
Ġconsec utive
in ary
ĠS il
ĠF A
ĠOn ce
ĠAn n
Ġcol ony
Ġthere fore
Ġ194 1
Ġvis ited
Ġorgan ization
Ġclaim s
Ġtem ple
Ġord ers
Ġcell s
wh ite
ĠScott ish
ĠFore st
Ġris k
ĠApple white
m et
Ġ rom
nd ing
Ġm el
ro ll
st one
ĠL o
Ġse ek
ian a
ĠCh ap
Ġj ump
Ġsp ot
Ġrem ix
Ġreg ions
Ġsecond s
ph ia
Ġsing les
Ġ198 7
ĠSh ort
Ġstud ent
Ġmin er
Ġbro ke
ĠAir port
Ġcond ition
Ġindepend ent
Ġwound ed
adel phia
M L
m ark
Ġa head
Ġf ix
is ters
ĠT ri
Ġre aching
ĠA p
ĠC am
ĠB ig
ĠP op
ĠIn stitute
ĠCh ild
Ġint ellig
Ġad j
Ġen emy
ĠAt t
Ġent er
ert ain
anc y
Ġvers ions
Ġcolle ct
Ġplan et
Ġsol o
Ġcas es
Ġident ified
Ġcoll abor
Ġnomin ated
Ġseem s
ĠEgypt ian
Ġtemper ature
Ġequip ment
Ġmom ent
ĠBack ground
e ch
Ġa ired
Ġb ott
Ġm ales
ĠS AF
ĠB BC
im s
ĠF urther
ĠD ue
Ġcon ver
Ġhe ight
ĠU s
Ġun ique
Ġ5 3
Ġnew ly
Ġele ment
Ġ12 0
Ġ198 4
Ġ198 9
Ġ197 2
Ġreturn ing
Ġsupport ing
ĠBe fore
Ġcamp us
Ġopp osed
Ġknow ledge
Ġproble m
ĠCroat ia
ĠSAF E
u ous
Ġt ur
re te
Ġw a
Ġf le
Ġf ear
Ġf ired
Ġd ress
il es
ĠM ike
ĠB ir
et y
ĠG ood
ĠL ock
ĠE ach
oc ated
ast ic
Ġte acher
Ġwe ight
Ġinter p
Ġ198 5
ĠInd ust
Ġoper ated
Ġlook ing
Ġincreasing ly
Ġliter ature
Ġconn ect
ĠOper ation
Ġanaly sis
Ġunk nown
b on
i ate
Ġt un
Ġthe ory
Ġc ouncil
as ters
ig g
ĠH MS
ĠP o
ĠF ield
ĠL ar
Ġhe re
Ġsh r
Ġcomp r
Ġwrit es
Ġdef in
Ġbelie ve
Ġexpl ained
Ġbre eding
Ġcommon ly
ĠBar row
Ġhistor ian
Ġide as
Ġburn s
ĠCard iff
Ġsettle ment
Ġenv ironment
Ġconfir med
m osp
Ġo x
Ġo il
at ch
or ter
Ġc ricket
Ġb ud
ĠS um
ĠM ore
Ġst ations
ĠP ublic
ĠR A
Ġal ter
Ġat mosp
ĠO x
ort al
Ġar rest
Ġher self
Ġper fect
Ġ5 5
ib r
ĠOn ly
Ġcons isted
hip s
Ġsing ing
Ġ194 4
Ġadv anced
Ġsystem s
Ġph il
Ġfem ales
ĠMich igan
ĠPhil adelphia
Ġproper ty
Ġeconom ic
Ġschol ars
Ġcontroll ed
ĠEnter tain
Ġmole c
y es
Ġf ast
Ġf ox
al ions
Ġp arliament
Ġm ount
Ġh appen
ĠM ounted
ĠN orm
ĠN ever
ĠJ on
Ġde ities
od on
ĠE ven
Ġmain tained
Ġgrow th
ĠKe ats
app y
ĠSw ed
Ġdev ot
Ġstreng t
Ġpie ces
Ġfail ure
Ġdro pped
Ġkil omet
ĠMean while
t av
Ġa wards
Ġs ens
is ation
Ġp an
ĠB on
ĠD utch
ist ry
Ġcomp ar
ĠAl bum
ĠAr m
Ġfilm ed
Ġcre ation
Ġland fall
ĠCar l
ĠCl ass
Ġkill ing
Ġfre eway
ĠWilliam s
Ġpit ched
ĠMor r
Ġstri ke
Ġhon or
Ġfly ing
Ġinj ury
ĠAdd ition
al ing
Ġm ounted
Ġh orses
ĠB an
Ġcon ne
ĠN athan
ag an
ĠJ ur
igh th
Ġex tend
Ġtr y
ie val
Ġ4 3
Ġres emb
Ġbo ats
ĠIt aly
Ġser ve
Ġspe ak
Ġ6 00
Ġret ired
Ġact ress
air s
Ġexp ed
ĠAnd y
Ġbelie f
Ġhum ans
ĠSte ve
Ġpromot ed
Ġval ue
urb an
ĠCong ress
ĠPre m
Ġrapid ly
Ġbatter y
Ġweap ons
l ers
s w
Ġs elling
Ġb id
Ġp ict
st ream
Ġst ra
Ġ5 6
Ġim ag
Ġwe ather
ĠAmeric ans
Ġinv asion
ĠCon ference
Ġpass es
Ġpass ing
Ġpublic ation
ĠMin ister
ĠAb u
Ġsignificant ly
Ġcou gar
Ġrelig ion
Ġpromot ion
Ġrecogn ized
Ġcreat ing
Ġconn ected
Ġsem i
Ġprem i
Ġprep ared
Ġdescript ion
Ġmultip le
Ġfeder al
Ġstra ight
L e
h aps
m ore
p ass
u ge
Ġa st
Ġs ought
it ch
Ġb ats
as ure
Ġd ata
ou red
ĠS or
ot y
ĠF inal
ĠG ord
Ġch ose
ĠV ideo
amp ion
Ġcol umn
ĠDe velop
Ġlead er
Ġfam ous
Ġmat ter
Ġrest aur
ĠGu ard
Ġdel iver
Ġpopular ity
arr ison
Ġprot est
Ġproduc ers
Ġvol ume
Ġwall s
Ġregard ed
Ġsev enth
Ġaspect s
Ġnecess ary
Ġschedul ed
g n
u ild
Ġs and
Ġc ust
an o
Ġre action
Ġl aid
ĠM att
ĠP et
ĠR og
Ġcon vers
ers ey
ag ement
Ġr ise
ell a
Ġ4 6
Ġag ricult
Ġspe ct
ick s
ames e
Ġfl ank
Ġ198 1
Ġstart s
Ġland ing
Ġgu est
hel ess
Ġaccom pan
ĠVietn amese
ĠJe ff
Ġnucle us
Ġsust ained
e er
Ġt im
Ġt act
Ġf ought
is y
Ġd ated
ĠC amb
Ġbe aut
Ġg e
ĠB ost
ĠH art
ĠH aven
ul ate
ĠG ulf
Ġr ival
ĠSt an
ie ut
iz ing
ograp her
Ġdel ay
ĠAm ong
Ġcast le
Ġstri k
Ġcurrent ly
Ġemploy ed
clus ion
Ġfamil ies
ĠThunderbird s
Ġphil os
ĠCamb od
c he
c rib
e es
he astern
in ity
Ġo uter
ĠA thlet
om y
ad s
ĠL ine
Ġr ating
Ġv irt
ap t
ap pe
Ġtr ain
Ġcont ained
Ġar ms
Ġ4 1
ans ion
Ġ7 00
Ġunder ground
Ġend s
Ġsupp ly
Ġ193 9
Ġprom pt
Ġdr ive
Ġtri al
Ġph ase
Ġfac ilities
ĠSl am
Ġfrequ ently
Ġbud get
R A
l ines
r ain
Ġt ree
Ġs ave
it able
Ġf ict
Ġb ank
Ġd rop
Ġre form
ĠS at
ĠC he
ir ing
ĠF estival
ĠN az
ĠG i
ĠG irl
ĠL es
ĠO p
ĠU l
Ġcont act
Ġcont ributed
Ġun us
Ġsp ring
ĠAn th
Ġact ors
orn ey
Ġ194 2
ins ula
Ġallow s
Ġref lect
Ġcolle cted
ĠPh o
Ġfind s
Ġneg ative
Ġexec utive
rup t
Ġsil ver
Ġcle an
Ġdeg ree
ĠRev olution
Ġbott om
ĠOx ford
ĠGord on
y ond
on ent
Ġs en
Ġc ited
Ġf resh
st anding
am ic
Ġbe yond
ol ved
ĠF riend
ĠD en
ĠN BA
av ed
ĠE nd
ill o
Ġsh aped
Ġcomp uter
ang ers
ĠSh a
Ġoper a
Ġ13 0
Ġ191 8
ĠUS A
Ġeffect ive
Ġentire ly
Ġanim als
Ġimpro ved
Ġsubsequ ent
ĠCo ast
ĠStud ios
ĠBet ween
ĠTurn er
ĠCra zy
ĠEntertain ment
ĠPrem ier
ieut enant
u ccess
Ġb ow
al le
as c
Ġm ob
Ġd raft
Ġg ain
Ġg ives
th ur
ĠW ork
ĠO bs
Ġnot able
Ġrec ently
Ġ5 4
ans as
ĠMar io
rop ium
Ġ196 8
Ġ196 9
Ġexp ress
Ġsim ple
ash ion
Ġext ensive
ĠMus lim
Ġmed ical
ĠBo ise
Ġfind ing
ush ing
Ġgrad ually
ĠTod ay
ĠLew is
Ġkilomet res
ĠBost on
c y
Ġd ates
Ġe gg
ĠC old
ĠC hel
im ents
Ġst ages
ĠP en
ĠD er
ĠG ard
ĠJ ain
se a
Ġ5 7
Ġfin als
Ġsecond ary
ock ed
ĠLe g
Ġsever e
Ġ17 9
Ġ197 5
Ġexp anded
az z
Ġserv ing
ĠPe ople
Ġant imony
Ġprogram s
ĠRuss ian
ĠMart in
c el
k i
r ong
Ġt ail
un te
Ġc amer
is hes
Ġb it
Ġh am
ĠS o
st ead
ĠC re
ĠC ole
ĠR ail
Ġit ems
ĠG reg
ĠJ es
Ġcom es
ĠK ey
Ġcomp osition
Ġbo at
we et
Ġcent uries
Ġ8 00
Ġ196 5
Ġ197 4
Ġocc as
ĠEv ita
Ġcor re
ĠMag azine
ĠSy stem
Ġoccup ied
ĠTur k
ĠUp on
ĠDem ocr
i ations
er o
Ġw ed
un ction
un icip
Ġm o
Ġm ig
ic c
Ġd aily
ĠS und
Ġn aval
ur a
ur ches
ĠI d
ĠD omin
Ġch air
ber g
ud d
ren ce
oy s
Ġfl oor
Ġso le
Ġmus h
hes s
Ġdec ades
anc ing
ĠJu an
Ġdeath s
Ġcritic ism
Ġfar m
Ġsuccessful ly
Ġloss es
Ã¡ nh
ĠCommand er
Ġtreat ment
ĠKh Ã¡nh
Ġslow ly
Ġindepend ence
Ġcommission ed
Ġexperi enced
Äģd a
Ġfict ional
k in
k et
u x
in em
Ġs quad
Ġo d
Ġd ial
ĠA venue
am ing
ĠR y
ĠR ome
ĠF ox
ul i
ĠK ir
ĠSt one
Ġro w
ĠBr idge
ann y
Ġdid n
Ġvis ual
Ġsent ence
Ġperson nel
Ġeng aged
Ġmy th
ĠSong s
ĠCro wn
ĠMac Le
Ġpurch ased
ĠJam al
Ġpolic y
ĠDan iel
Ġfa ith
ĠJur c
T C
h at
y son
Ġb ass
ic ed
Ġe c
ly wood
ly ss
ĠB art
ĠB rian
ĠD o
ĠL l
Ġch orus
Ġun p
ĠAl f
Ġsp orts
Ġpre fer
Ġ9 6
Ġco al
Ġco ol
Ġ16 4
ĠSc ience
Ġ194 6
ĠIs ab
Ġconc rete
Ġsouth west
Ġworld wide
ĠPro v
Ġcapt ain
Ġprop os
Ġdecl ined
Ġprot agon
Ġbeg un
Ġreason s
Ġneg ot
bor ough
ateg ory
Ġbrief ly
Ġattr act
ĠTenn yson
Ġchall eng
ĠThrough out
ĠDist rict
b l
f ort
p et
Ġf at
Ġd rawn
Ġe as
Ġbe ach
ĠM ic
ĠD ubl
ĠN H
Ġex clus
ĠU N
ĠK n
Ġnot e
ĠV ill
per ial
ĠAl so
Ġ7 3
Ġ9 5
Ġfl ag
Ġmov es
Ġno thing
Ġinc ident
Ġconc er
ĠPro ject
Ġorgan iz
Ġimport ance
Ġroad s
Ġel imin
ĠBar b
ĠSim one
Ġesc ape
ĠLi u
uccess ful
ĠDubl in
i ro
i ences
r ang
Ġ #
Ġw orship
Ġf ur
Ġh ired
Ġre nd
Ġn or
ĠC y
ĠC ub
ĠI gu
ĠB ru
Ġst reet
ĠH y
ĠD un
ĠL iber
qu ake
ĠK a
ĠK ang
Ġar c
ĠHe ad
are t
Ġte nd
Ġ6 1
Ġfound ation
Ġdec ade
Ġlong est
Ġ196 6
Ġ195 2
Ġ191 9
Ġposs ibility
Ġarr ival
ĠPro t
Ġfav our
Ġhy d
cher s
Ġbill ion
Ġchap ter
Ġparticip ated
Ġcal c
Ġfir m
Ġenjoy ed
ĠAre a
ĠTem ple
Ġwit ness
Ġrespond ed
ĠProdu ction
ĠFam ily
Ġpaint ings
Ġaccompan ied
Ġt all
Ġthe at
Ġw ides
Ġp ul
Ġm ist
Ġl abor
ĠM em
Ġg as
ĠB as
Ġst ret
ay er
ĠR et
ĠF ive
ĠG A
Ġhe ard
ĠE ll
ap es
ĠU lyss
ian ce
ĠCh art
ĠCh ains
ĠAl i
iz es
Ġne ck
Ġ9 7
ĠMar ia
Ġapp lic
Ġset ting
Ġsur re
Ġdevelop ing
Ġ17 7
Ġown ers
Ġ193 6
Ġgu ard
Ġold est
Ġgl ob
Ġagre ement
ĠGovern or
Ġdoll ar
Ġnorm al
Ġplat form
Ġrough ly
ĠDevelop ment
Ġsen ior
ĠMacLe od
ĠUlyss es
c hest
i able
l s
p read
Ġh or
ĠA er
ĠC D
ĠM ur
Ġg reen
ĠB and
ĠB aby
ĠR on
ĠF all
ĠE s
ist an
ĠIn stead
Ġch oice
Ġrem n
Ġcons ists
Ġver t
Ġac ad
Ġacc ident
Ġadd ing
Ġpop ulations
Ġ197 3
ĠIs l
ĠAd mir
Ġlast ed
Ġtri p
ĠBo ard
Ġcomb ination
Ġsk in
Ġtechn ology
Ġexist ence
Ġregard ing
Ġviol ence
Ġpoet ry
Ġdomin ated
ĠFranc isc
Ġathlet es
ĠDou gl
ĠAnth ony
ĠTurk ish
i ot
re m
Ġs n
ed a
ĠS us
Ġe th
ad ow
ĠThe atre
ĠM at
ĠM od
id ay
us al
Ġis ol
ag er
um pt
Ġcom ic
ant ly
ge nd
Ġres erv
Ġsp ons
Ġcomm ittee
Ġfilm ing
Ġac res
Ġapp lied
Ġsub mar
Ġcall s
Ġperform ing
Ġ196 7
ĠTe am
Ġcolle ge
Ġclub s
Ġcompet itions
Ġassoci ation
Ġclos ely
Ġrese ar
Ġexist ing
Ġuns uccessful
Ġhabit at
Ġweaken ed
ĠIgu an
c ome
r um
Ġa er
er a
at on
is ers
as er
ĠA ston
ĠM ov
ĠM ountain
Ġal tar
res p
Ġper haps
Ġover l
Ġne ither
Ġ6 2
ĠMar l
Ġunder t
Ġinter act
Ġappe al
Ġdec re
Ġcap able
Ġtrans it
Ġ11 0
Ġdist ingu
Ġprov ides
Ġ191 4
Ġbatt alions
Ġserv es
Ġgreat ly
ĠPh ill
Ġdet ails
Ġpain ting
Ġarchae ological
Ġder ived
Ġlearn ed
Ġtell s
Ġrein force
Ġpil ot
Ġpurp ose
Ġadminist ration
Ġopportun ity
Ġbene f
Ġcerem ony
Ġoccasion ally
a ver
e ction
s et
Ġs ort
Ġf ellow
Ġb ought
Ġd ance
Ġth ing
ĠA ri
ĠA ML
Ġon es
ĠM en
ĠB ishop
ĠD ota
ĠG ab
Ġse at
op es
ich ol
Ġch urches
Ġcont rib
Ġrec onst
ĠAl bert
Ġdes cend
ib be
Ġspe aking
ĠAn onymous
Ġ8 5
Ġsupp osed
Ġsur vey
pr ing
Ġinv ited
Ġrece iving
ĠCar ibbe
Ġed itor
Ġhead ed
ĠAd v
Ġstory line
Ġbas ket
Ġtown s
Ġpar alle
Ġtechn ique
Ġsuff icient
Ġenc ounter
ĠOd e
ĠBra z
Ġinn ings
Ġfill ed
Ġvehic les
Ġdissip ated
ĠHorn ung
ĠChel sea
ĠDougl as
ĠCaribbe an
u ate
Ġ ut
Ġt on
in ner
er c
Ġs om
at o
Ġf ashion
Ġd rew
am y
ly ing
ul es
ĠL ife
ĠL ieutenant
Ġse g
ĠE RA
Ġpl um
ĠK enn
ĠSt ew
ĠSt ep
Ġ7 1
ĠAs ia
ĠLe on
Ġdo or
Ġgo es
Ġ194 5
Ġ197 1
Ġbr anch
Ġrece ive
Ġdep ict
Ġany thing
pect ive
Ġclass ified
ograp hic
Ġview ed
ĠPer ry
ĠGeor g
ĠAb out
Ġisland s
Ġtyp ical
Ġsurv ived
ÃŃ a
Ġmass ive
Ġaccom pl
ĠCard inal
Ġstop ped
ĠMa eda
ruct ure
Ġdram a
Ġsymb ol
ĠConstant ine
ĠHib ari
ĠSum mer
Ġast ron
Ġwides pread
h u
p son
r uli
w in
Ġa im
Ġs ail
Ġc rop
ar ian
al a
ic ations
ĠA ge
ĠM TV
ut ing
Ġwh y
ĠR ol
ĠR od
ag le
Ġr ing
Ġr if
Ġsh ared
Ġtr uth
Ġtr ying
ust ed
ra it
Ġ5 9
Ġfl ights
Ġass ass
Ġac id
Ġqu ot
Ġpo ly
Ġ198 2
ĠWh at
Ġdist rict
ĠCon st
ĠQ edar
Ġprote ction
Ġauth ors
ĠBro ok
ĠRoman i
ĠGeor gian
ĠSim on
ĠSte v
Ġhouse hold
Ġmiss ing
Ġmot ion
ĠGold en
gl ades
Ġsyn t
Ġsett lers
Ġacqu ired
Ġdig ital
Ġsaf ety
Ġsout heast
Ġrepe ated
ĠFant asy
Ġconver ted
ibr ary
at i
Ġh a
ĠT ra
ent ially
ĠB ond
ĠB ull
id ges
ut ation
ĠR io
ĠF re
ĠJ ud
ist on
ĠIn g
ess ed
ĠU r
ip s
ĠSt adium
ub le
Ġro utes
Ġro of
Ġsp acing
Ġfin ish
Ġev ac
iss ance
Ġsub stant
ck i
Ġloc ations
Ġ16 0
Ġ197 6
Ġdep icted
Ġ195 6
Ġ191 3
Ġ191 6
Ġturn s
Ġexper iment
Ġplan ning
Ġwat ched
Ġhold ing
Ġbase ball
Ġfund ing
Ġfoc used
ĠOs lo
ĠMo z
Ġarrang ed
ĠHait i
Ġsuc ceeded
ĠRad io
ĠFred er
Ġperman ent
Ġopin ion
ĠShort ly
Ġatmosp here
Ġwed ding
V N
t ure
t ty
Ġ i
Ġ ign
in n
Ġf uel
Ġb ul
Ġb owl
Ġin du
Ġd ub
ĠT im
ĠC a
ac ity
ĠR ow
ĠJ ones
ĠO h
Ġch o
Ġch ance
Ġch annel
Ġex act
ie ge
Ġres ident
Ġ7 2
Ġkn ew
Ġ8 1
Ġdef ined
ific ations
Ġ194 3
Ġ17 5
Ġprov iding
ĠAll ied
Ġinit i
Ġreal ity
br idge
Ġdecl ine
Ġcor resp
idd en
Ġcreat or
Ġpen alty
Ġearth quake
Ġcred ited
het ic
ĠVen us
ĠIguan odon
ĠBraz il
Ġcorresp ond
G N
e ed
k y
u an
Ġt ied
in du
Ġw ins
Ġin ner
Ġm ic
Ġd ating
ĠA st
st ances
Ġe u
ĠI GN
iv ered
ĠH indu
ĠR angers
ĠD ream
ĠG ully
ĠL enn
ag re
Ġr ich
ok es
Ġj ack
Ġpre gn
ĠAr ts
Ġ9 4
aw a
Ġchar ter
Ġfl u
Ġass emb
Ġgr av
Ġsupp lies
Ġ196 3
Ġ11 2
Ġdown lo
Ġair port
Ġhead s
Ġ25 0
Ġway s
Ġexpl os
Ġdel ivered
Ġlaw s
Ġgl ass
Ġsepar ated
Ġren amed
ĠEver glades
Ġthous ands
ĠSecret ary
ĠMorr ison
ĠAddition ally
uild ing
ĠPho en
ĠStev ens
Å ¡
Ġ ice
in ated
Ġw ick
Ġc it
it an
is f
Ġe yes
ĠB h
ĠH omer
ĠR un
and a
ĠG re
ĠG ram
ĠL uc
est one
Ġr ac
Ġr ural
se y
ĠU TC
ie ce
Ġro se
out s
Ġte aching
Ġover se
Ġsec ure
Ġreg ime
Ġem peror
Ġ17 6
ĠAustral ians
ĠComm ittee
Ġturn ing
Ġcommand ed
Ġopp osition
ĠBro ad
ĠSim ilar
Ġcert ified
Ġinsp ir
Ġremain der
Ġindic ate
ĠOff ice
Ġconsist ing
ĠHol lywood
ĠBrad ford
ĠArch ae
ĠAlex ander
Ġinstr ument
ĠColumb ia
Ġspl it
ĠFriend s
ĠSund ay
B S
R E
g Ã©
j illo
p any
r ons
Ġ urban
Ġa ware
Ġd og
Ġd ru
ĠS ap
Ġe ld
ĠC le
ig ation
ĠH oly
ĠP ers
ĠP att
ĠN ative
ĠG ang
ĠL y
Ġatt ached
Ġ7 7
ĠMar ine
Ġcol our
Ġno isy
Ġqu ite
olog ists
Ġhigh light
Ġadd ress
Ġ197 8
Ġocc urs
Ġ195 3
Ġcour ts
Ġrefer ences
Ġaff ect
Ġtechn ical
Ġval ley
Ġrev olution
ĠMary land
Ġeconom y
Ġestablish ment
Ġassist ance
ĠMont ana
Ġjourn ey
ĠCroat ian
ĠCrit ical
Ġpow ers
ĠDire ctor
ĠTru jillo
Ġdru g
l ik
Ī Ĵ
Ġt able
in osaur
Ġp et
Ġd ry
il ton
Ġl in
el a
ĠB ern
id er
ĠH an
ĠD own
ap ers
ew here
igh ter
ak ed
Ġâ ĪĴ
Ġle aves
ĠCh ronic
Ġres ist
ĠAl an
ress ive
Ġfin ishing
iss ipp
ĠAr thur
Ġinter ior
Ġstud ied
Ġlead s
Ġdist urb
Ġdist ribution
Ġrep utation
Ġsuccess or
ĠRo xas
Ġview s
ival ent
ĠMiss issipp
Ġsurv iv
Ġproduc ing
Ġmiss ions
ĠWal ter
Ġden ied
Ġadap ted
Ġshoot ing
Ġmethod s
Ġportray ed
ĠCharl ie
ĠEngine er
Ġstrengt hen
ĠMississipp i
y ch
Ġs le
Ġh all
ĠS ub
Ġl ane
ur ation
ĠB ur
ĠR el
ĠW ind
and y
ĠL ow
ag ues
Ġr ub
ri er
if ying
Ġsu d
ard o
Ġk its
ĠK il
Ġro b
Ġoff ense
Ġup d
Ġpre y
Ġgame play
Ġent ry
Ġent ering
Ġmain tain
Ġcharacter istics
Ġ191 5
Ġcamp s
Ġprote cted
Ġcr ime
ĠWith in
Ġpolit ics
Ġget ting
ĠRec ording
ĠAct ivision
ĠHow ard
Ġimm ig
sen al
ĠSam uel
Ġwor st
Ġdismiss ed
Ġintellig ence
O T
S B
b orn
h i
k ins
Ġc rown
Ġp uzz
ĠS now
ad or
ĠM ul
Ġst ones
ĠH on
ĠH ug
et te
ĠR idge
os a
ĠL u
ĠJ ac
ĠJ ay
ĠE du
Ġv on
Ġex erc
Ġnot ing
ip l
ell s
Ġatt ributed
Ġkn ots
Ġ9 8
ĠMar sh
Ġchar ges
rop ri
Ġcap acity
Ġmon arch
Ġmon ument
ĠPl unk
Ġclass es
Ġrepl ace
Ġbas in
Ġfr anch
Ġnov els
ĠSte f
Ġchart s
Ġintrodu ction
Ġinterest ed
ĠCal vert
Ġhold s
off man
Ġdiscuss ed
Ġdoll ars
Ġmush room
ĠIsab ella
e cess
h ost
t own
v ar
er og
Ġw orth
Ġc ab
en ge
Ġb aby
Ġp al
Ġp ound
Ġm ort
ic ial
Ġd ie
ĠS ound
Ġl ic
el ve
ĠM L
iv ity
ĠP ope
ĠF ar
ĠD ar
ĠD NA
ĠD anny
ĠW all
ĠN BC
ĠJ ersey
Ġse ctor
ri en
Ġv ic
Ġv ary
Ġv ision
op her
ame ter
our ces
Ġag ent
Ġoff ers
ang erous
Ġ6 6
Ġpubl isher
ob a
aj ev
Ġ194 8
Ġdescrib ing
Ġgener ation
Ġmod er
Ġ191 7
Ġappear ing
Ġmed ieval
Ġfield s
Ġstat ement
Ġhistor ic
Ġ189 0
Ġcoast al
Ġpred ecess
Ġelect ric
Ġrul ed
Ġrul es
Ġaccount s
Ġyoun ger
ĠWeek ly
ĠSar ajev
ĠLis a
ĠIndust ry
ĠSarajev o
c an
m ans
Ã ¨
in tend
er ted
or ough
Ġc aught
Ġc inem
it ors
en a
Ġto mb
ĠH o
ĠH ard
ĠR ay
ĠD aily
ĠL ess
if ul
Ġex pect
Ġex ception
Ġpl ants
Ġar ts
ub e
ĠV ol
Ġdes ire
ĠY e
ĠY ank
form ation
att le
Ġsome one
Ġap art
Ġso il
Ġret ire
Ġ197 9
Ġ195 1
Ġbas ic
Ġevery thing
Ġdiscover y
Ġdifficult y
Ġrecogn ition
Ġtrib es
Ġz one
Ġforest s
Ġrare ly
Ġconsider able
ĠStr and
ĠVictor ia
Ġemot ional
Ġnin th
ĠDest iny
Ġartic le
Ġrestaur ant
crib ed
ĠStep hen
ĠFreder ick
ĠYank ovic
O C
c op
i ents
v is
Ġt aught
or er
it age
Ġb ond
ĠT op
ĠA round
ig ades
Ġst ore
ĠH ell
ot hes
ĠP ress
Ġcon ve
ĠG il
ĠE arl
ĠIn it
Ġsh ore
Ġk ings
Ġcont est
Ġman ner
Ġdis appe
Ġen l
Ġshe l
Ġdo ct
Ġ196 1
Ġland ed
Ġ195 4
ĠTe levision
Ġeven ing
Ġopp onents
Ġrepl acement
ĠAb b
Ġinvol vement
Ġpit ch
gr aded
com ing
Ġnomin ation
Ġspecific ally
Ġchap el
Ġwood en
ĠRes ear
Ġcolon ial
ĠJo e
Ġhot el
ĠSomal i
Ġrhy th
ĠClark son
Ġthir ty
ĠRol ling
ĠMoz amb
Ġsud den
B rien
a ire
c ation
n est
r in
y m
y s
Ã ¶
Ġf an
Ġf air
ing ale
Ġm ine
Ġh ope
ĠS anta
ĠF ame
ĠF low
ĠD om
ĠD et
Ġcon sequ
ĠN ether
ĠL ords
ĠJ if
ate ur
Ġim pr
Ġwe alth
Ġ6 9
Ġsec ured
ĠAn ton
Ġ8 7
Ġso ft
Ġacc ur
ĠLe e
Ġ193 7
Ġbelie ves
ĠOr der
ps ons
Ġcommun ities
ĠSim psons
Ġdiv ine
ĠRober ts
ask a
Ġpoem s
ĠDu ke
ĠSing les
ĠJer usal
ĠCamp b
ĠSk ye
Ġinterse ction
Ġcontrovers y
Ġpick ed
ĠColon el
ĠCast le
ĠWild e
Ġrecommend ed
Ġfung us
ĠBon o
ĠFrancisc o
ĠJif na
ĠJerusal em
L I
a o
e enth
n ell
n amed
r ations
t heless
re ts
re ets
it led
Ġf aces
Ġm unicip
ĠT el
Ġl ov
ĠM aster
ĠR Ã©
ĠF ish
ĠD is
Ġcon te
ĠW ars
av a
Ġpro s
Ġv an
ult ane
Ġrele g
Ġwhere as
Ġsign ing
Ġ195 5
Ġext rem
ĠTr ack
Ġstand ards
Ġleg s
Ġjoin t
ĠEl iz
ĠHam ilton
Ġappoin t
Ġmiss ed
Ġlaun ch
Ġdraw ing
Ġvol unte
ĠÃ Ĺ
ĠOlymp ics
Ġschol ar
Ġconcern s
ĠMil itary
Ġleaders hip
Ġprincip al
Ġspecim ens
ĠAdam s
ĠTrans port
ĠIndepend ent
ĠArgent ina
Ġorganiz ations
Ġextrem ely
3 0
Ġs ession
at ures
Ġc ard
am ber
ĠC at
ĠC op
ĠC ory
Ġg al
ĠB i
Ġst ream
ĠH ere
ce ived
ĠR if
ĠF ire
Ġcon ference
ĠW i
ĠW alk
Ġ19 00
os ure
av ia
um a
ist ol
Ġex isted
Ġy outh
pt on
Ġpart ies
Ġpart ners
Ġte eth
Ġj azz
we alth
Ġspe ech
Ġcomm it
ĠMar c
Ġshow ing
Ġdist ributed
Ġ195 8
ĠBe ach
ĠFor ces
Ġappro ached
Ġtri es
ĠPr ime
eng ers
Ġrelationship s
Äģ n
Ġtreat y
Ġdi ameter
Ġthreat ened
Ġsurround ed
Ġemer ged
Ġchem ical
rane an
ĠWrit ing
ĠBan ai
Ġconne ction
Ġeu ropium
e z
g ie
i pe
w ise
Ġw ants
Ġw rong
ed om
al ent
Ġp ack
Ġp age
Ġh ill
ĠS pring
ad d
ac ent
ĠM ot
Ġst em
ĠH u
Ġal ien
ĠF el
ĠW y
Ġsh ark
Ġle uk
ide os
Ġdis app
ĠY an
Ġ7 9
Ġprodu ct
Ġ194 9
Ġ197 7
Ġdisc ip
Ġstr ateg
ĠCar ter
ĠPl ot
Ã© t
Ġsol id
Ġhistor ians
Ġsee ing
Ġcross ed
Ġfac ing
Ġregular ly
Ġcondu ct
ĠDep ression
Ġrail way
Ġimmedi ate
Ġfir ing
Ġfavor ite
Ġhop ed
Ġdocument ary
Ġinstit utions
Ġlb w
Ġaltern ative
Ġrat ings
ĠNorm an
Ġexped ition
ĠRog er
Ġunus ual
ĠMod ern
Ġisol ated
Ġsynt hes
ĠLenn on
d al
in als
Ġs oul
un ion
at us
Ġc old
Ġb es
Ġin land
ent ions
ow ie
us ad
ĠD A
ĠW W
ĠW at
ĠG offman
ab eth
Ġad mitted
ok ed
Ġsc rap
Ġpart ial
ĠUn like
Ġreg ional
Ġass umed
Ġind ig
Ġsy m
Ġ12 1
ivers ary
Ġbr ight
Ġexp ansion
Ġown er
Ġdesign ation
Ġwar m
Ġpoin ted
oss ible
ĠHer gÃ©
Ġann iversary
Ġreview er
Ġbre aking
Ġdem ol
Ġstrong ly
Ġchang ing
Ġdet ail
Ġdestroy ers
Ġprot ests
omb at
Ġtre ated
ÃŃ var
Ġve get
Ġlangu ages
Ġsequ el
oo th
Ġmot or
Ġliter ary
Ġexam ples
Ġbring ing
ĠJane iro
Ġwaters hed
ĠHum an
ĠBol ÃŃvar
Ġmess age
Ġdut ies
ĠRy an
Ġprotagon ist
ĠSap rang
ĠKil mer
Ġfranch ise
f riend
g as
r ab
w ar
Ã ¼
Ġt ie
on ica
Ġs ke
or ters
Ġf ish
ing ly
Ġh arm
ĠT rib
ĠT ower
ĠA R
Ġe ighth
ĠI ron
im et
Ġst adium
ĠF ern
ĠW imb
os ite
ĠN ap
Ġse ctions
Ġor chest
Ġch ampion
ĠK at
ĠK el
Ġtr a
ĠCh ief
Ġint ention
ĠHe arts
Ġag ed
Ġover w
ib l
Ġout f
Ġme ets
aw s
Ġret reat
Ġind icated
Ġ198 3
Ġmin ister
led on
Ġdep artment
Ġair line
Ġwin ner
Ġappro ved
Ġmark s
Ġdet ailed
Ġgen re
Ġcou p
Ġimpro ve
Ġcirc um
Ġengine ering
Ġcomplet ion
Ġabs or
ĠLaw ton
Ġanc est
Ġattr acted
ĠBC E
Ġspecim en
Ġwear ing
Ġresc ue
ĠBurn s
Ġegg s
Ġeas ily
Ġacad emic
ĠGeorg ia
ĠResear ch
ĠWimb ledon
a ug
e or
i our
k now
n ie
o ch
Ġ ur
Ġ ib
on a
Ġs un
or ous
ar p
ic ian
Ġh appy
ĠA D
ĠS quare
Ġl ap
am ents
ĠM id
ĠI V
Ġg ather
ĠB ul
ĠB ase
ĠB ank
ĠH ung
ĠP erson
ĠW in
Ġr u
all ow
oc key
ĠSt ation
Ġtr ail
pp ing
og ether
ok ing
ĠTh ird
ens us
ĠDe v
Ġac know
Ġmus car
Ġacc used
Ġco ord
Ġem p
ĠGer ard
Ġcar bon
ĠCol or
Ġattempt ing
Ġeffect ively
ister ed
Ġlook ed
Ġread ing
Ġsurv iving
Ġpract ices
Ġterrit ories
ĠRichard son
Ġcivil ian
Ġtravel ed
Ġfeel ing
Ġassist ant
ĠTer rit
ĠJe an
Ġsett led
Ġchall enge
ĠSomal ia
Ġconstit ution
Ġencour aged
Ġtermin us
Ġstarl ing
ĠRh odes
ĠCam bridge
Ġadj acent
Ġcit iz
b an
b ur
b ody
b reak
c ape
m od
Ġs ell
Ġf er
Ġb al
Ġm ut
Ġd ock
Ġth in
ĠS a
ĠS i
ĠS av
Ġn ick
am m
ĠM ortal
th y
Ġst reak
ĠR os
Ġr aces
Ġv ideos
ill ing
ew hat
Ġsh ots
ĠK ombat
Ġcomp ounds
Ġrec re
Ġrec alled
Ġpart ly
Ġpre ced
Ġev il
ĠAn iston
Ġ9 1
Ġ9 9
Ġ8 8
Ġunder w
Ġinter change
Ġdec or
Ġcre st
Ġob tained
Ġ191 0
Ġext reme
Ġposs ession
Ġvis ible
Ġstand s
Ġ190 9
Ġconv oy
ĠKe amy
Ġident ity
Ġ188 0
Ġarm or
Ġseem ed
Ġgre y
Ġpain ted
Ġbrother s
Ġmult i
Ġtow ers
Ġarrang ement
ĠForm ula
Ġrecover ed
Ġscient ific
ĠGar c
Ġinh abit
Ġcandid ate
ĠJourn al
ĠCommon wealth
Ġrom antic
ĠAtt orney
Ġagricult ural
ĠJes us
ĠAdmir al
Ġsom ewhat
Ġinspir ation
b ie
d ess
Ġt one
Ġthe atre
Ġs an
Ġo cean
is is
Ġh its
ĠT est
am in
Ġg all
iv als
th osaurus
ĠP ine
ĠP ower
em ia
ĠW olf
ĠL anc
Ġhe ar
Ġse lect
um ps
Ġpro ceed
Ġsh if
Ġcl oud
Ġte ach
ach us
Ġsp aces
ĠAn c
Ġrel ative
ĠMar ines
Ġver se
Ġfl ed
Ġact s
rop ol
Ġpres erved
Ġ12 2
Ġmain t
ĠJohn ston
Ġest ate
ek Äģn
ĠGer mans
Ġimp lement
ĠFr aser
enn is
Ġpass age
Ġ193 1
Ġ193 5
Ġ191 2
ĠGu y
Ġfoot age
ĠPol and
Ġequ al
Ġconv in
Ġcat ch
Ġcy cle
Ġsuff ering
ĠIsland s
Ġredu ce
Ġhost ed
Ġfund s
Ġindust rial
ĠArab ic
ĠEver y
Ġlink ed
Ġspir it
ĠTy pe
Ġsculpt ure
Ġbasket ball
ĠPlunk etts
ĠCory thosaurus
b ishop
h ow
i ary
r ast
s ewhere
v ious
Ã ¤
Ġ ere
Ġt ailed
Ġa u
Ġs essions
Ġs iege
Ġw ars
un ior
it als
ar ning
Ġp s
Ġm is
Ġm ap
Ġh ip
il ly
st a
Ġl ob
ĠC E
ĠB os
us ing
ĠP rote
Ġcon qu
ĠN ick
ĠN intend
ĠL oc
Ġde ck
ĠE c
pe are
ĠIn c
Ġch ronic
ab led
Ġle gend
Ġle arning
Ġun f
Ġdis pl
Ġser ial
ĠY our
ĠRe le
aw are
Ġfl o
Ġinc ome
ĠLe v
ific ial
ĠSh akes
Ġcontin uing
Ġexp ensive
Ġprov ince
Ġattack ing
Ġ193 2
ĠAll ah
Ġreview ers
Ġopp osite
Ġmed ium
Ġdest ruction
Ġdeb ate
atter ed
Ġtw elve
ĠEx p
Ġcirc ulation
Ġrespons ibility
Ġdefend ed
Ġstay ed
Ġblock s
go ing
ĠHot el
ĠFI A
Ġequip ped
Ġconcern ed
Ġcontrovers ial
Ġadult s
Ġcompos er
Ġincorpor ated
ĠPen insula
Ġcorre ct
ĠMarl borough
Ġdownlo ad
erog ative
ĠNintend o
ĠShakes peare
h m
k a
x ts
y cl
y les
Ġ ic
on ic
or ious
Ġb le
Ġb ay
Ġin aug
Ġp ric
Ġp ushed
ic ts
Ġn one
ur i
Ġg one
ĠP ul
ĠF air
ag as
Ġr itual
ĠO wen
Ġpro port
ĠK ar
Ġres erve
Ġsp in
Ġsong writ
Ġpo ol
iam ond
Ġdep os
ink ing
Ġpass engers
Ġwill ing
Ġ191 1
Ġdr iving
ĠFe i
Ġ192 1
Ġ192 9
ĠFl ight
Ġlow est
Ġvict ims
Ġpat rol
ĠPal ace
ĠPal my
Ġpromot e
Ġmeet ings
Ġcross ing
Ġaccom mod
Ġfall ing
Ġmeas ures
stit ution
Ġreb els
ĠLaw rence
Ġobserv ations
Ġvot ed
ĠPat rick
Ġthrow ing
hew s
ĠStan ley
Ġremn ants
Ġparalle l
ĠConst ruction
Ġiniti ative
Ġkits une
ĠNether lands
b urg
r ant
s es
y ard
z i
z en
in je
Ġs ight
Ġc raft
it ated
Ġin te
an ning
Ġh at
ĠS weet
ĠC hen
ĠC ook
ol ay
ĠB ert
im inal
ĠH ospital
us cript
em eter
ag n
Ġcom ments
Ġex ha
Ġpl ain
oc a
ĠSt ory
ĠSt ock
og en
ond er
ark ed
form ed
Ġ8 2
Ġfl at
Ġac claim
Ġret ained
Ġdef ences
Ġgro ss
Ġ16 2
Ġ196 2
Ġreturn s
Ġmusic ians
Ġ195 9
Ġgovern or
Ġ193 8
Ġclass ical
ĠGe off
ĠOr gan
Ġinvol ving
Ġrepresent ing
Ġpat ron
Ġequ ivalent
Ġgod dess
Ġpra ise
ĠAtl anta
Ġwat ch
Ġvill ages
Ġpit cher
Ġdifficult ies
Ġsuper ior
Ġra ise
ĠPlay er
Ġbi ography
ĠQue ens
Ġintens ified
Ġobject s
ĠEm peror
Ġabs ol
Ġunderst and
ĠPit man
Ġcarry ing
Ġvess els
ĠKore an
Ġfix ed
Ġbats man
ĠGuard ian
ĠCambod ia
Ġoccas ions
Ġhyd ro
Ġglob al
Ġeth n
ĠStef ani
ĠEliz abeth
ĠGarc ÃŃa
emeter y
d e
u ct
w ich
er r
Ġs am
Ġs ulf
Ġo w
Ġc ry
Ġf al
Ġf ine
Ġm art
Ġd ivers
ent ures
ĠC ru
Ġon line
Ġg end
ter bury
ĠB ass
ĠH un
Ġal leg
Ġan sw
ĠL ab
ĠJ oy
Ġse es
Ġr ay
ĠO ur
Ġpro hib
Ġor n
Ġex change
ĠCh annel
Ġres ources
Ġj u
Ġcomm itted
Ġ7 4
Ġsim ultane
ĠMe ga
ĠCan terbury
Ġperiod s
ĠSp ace
Ġcover s
Ġdefe ating
pec ies
Ġinflu ences
ĠDes ign
Ġdiv isions
Ġlim it
Ġneed s
Ġaccom pany
Ġmor al
Ġcoll aps
Ġren ew
Ġreve als
ĠMed iter
Ġesc ort
ĠEnter prise
Ġpurch ase
Ġnarr ative
Ġvo iced
Ġbehav iour
ĠPalest ine
ĠAthlet ic
Ġcamer a
Ġprefer red
Ġconcer ts
ĠProt est
ĠAer ith
ĠPhill ies
Ġsurviv ors
Ġconte xt
ĠMediter ranean
f are
g raf
m ine
r ig
u ilt
Ġt ick
re l
Ġc ul
Ġf old
es c
es i
ĠC orn
ĠM u
ĠM other
ĠB ark
Ġas h
ĠR aff
ĠR ugby
ĠF urt
ĠD C
ĠD i
ĠW icc
ĠN ow
ĠL ate
ĠL ink
ĠL abor
Ġr ugby
res ents
ap ped
op hy
ate ch
Ġex it
ud a
ĠSt op
ell i
ure au
Ġcl o
Ġag ree
Ġfe ather
Ġprodu cts
Ġform ally
Ġfollow ers
Ġinc om
Ġ0 6
Ġ0 7
Ġ16 1
ann ah
Ġoper ating
rap h
Ġrep resents
ook ing
ah l
Ġconsid ers
ĠUS D
Ġref ers
Ġcover ing
Ġel se
Ġel abor
Ġcritic ised
Ġdet ect
Ġdoes n
Ġste el
Ġclos er
ĠChampionship s
ĠMark graf
Ġtrib ut
Ġfeel ings
Ġvisit ors
Ġabs ence
Ġnorm ally
Ġhundred s
Ġpup ils
ĠSpec ial
Ġlegisl ation
Ġdeploy ed
Ġarrest ed
Ġdial ogue
Ġpropos al
ĠGram my
Ġrhyth m
Ġmunicip al
ĠCat hedral
ĠColor ado
ĠRaff les
ĠFurt ado
a fter
e ke
m ath
or gan
is ms
es se
Ġb one
Ġb rick
Ġp ure
Ġd im
Ġd ens
Ġd iet
Ġe t
ĠC ab
ur day
ĠM el
id ers
Ġst able
ot ic
ĠP A
ĠD ark
ĠG ib
ag u
Ġde em
ĠU sta
Ġrec onna
ĠAl ong
Ġman uscript
ĠRe al
Ġfe ed
Ġ9 3
Ġpr erogative
Ġform ing
Ġam ino
Ġsur pr
Ġ16 6
ĠSh olay
Ġinf rast
ull en
ĠTe chn
Ġext ent
Ġclass ic
Ġtrad ing
Ġsk ull
Ã¡ r
Ġhy p
Ġbi ographer
Ġpoor ly
Ġstation ed
ĠIm perial
Ġdisplay s
ĠPri or
Ġens ure
Ġmom ents
Ġopt ion
Ġintern al
Ġdrum s
ĠKr ak
Ġinterp ret
ĠSat urday
ĠDomin ican
ĠNH L
Ġsubmar ine
Ġresear chers
Ġreconst ruction
Ġconve ction
ĠFern and
Ġmuscar ia
ĠUsta Å¡
Ġreconna issance
e per
i as
v ention
Ġs unk
Ġs we
Ġs aves
Ġw ings
Ġc reek
Ġb at
Ġb low
ĠT ig
ĠT reat
ĠS her
st ate
Ġl ose
Ġl ists
ĠC ape
ĠB ed
Ġst reets
ĠH ou
ĠH ob
ĠF ree
ĠD ur
em an
Ġor bit
ĠK it
Ġint ense
Ġ8 9
ĠMar g
Ġver te
Ġapp ropri
Ġ0 5
Ġent itled
Ġtrans ition
Ġuse ful
ĠBl ood
Ġmod ified
Ġann ually
Ġdr iven
Ġext ension
Ġconstru ct
Ġinflu ential
enc ies
Ġpost ed
ĠMag gie
ĠRec ord
ĠMex ican
ĠMed ia
Ġinj uries
Ġwithd rew
Ġmem ory
Ġcru iser
ĠFI FA
Ġunderst anding
Ġdram atic
Ġpurp oses
iqu es
Ġdyn asty
ĠDA G
Ġoverw hel
C A
d s
r ine
s ch
v ements
v ati
Å į
Ġt ight
Ġt ank
Ġt ests
in et
on omy
re al
re ll
Ġs aved
at en
or a
or al
Ġc hess
ic op
Ġd inosaur
Ġh ang
le te
Ġre pr
Ġl oy
ĠC ult
ĠM ah
ĠB ron
ĠH ud
ĠH ok
ĠH ind
ĠF ront
Ġcon g
ul s
ĠN ichol
ĠJ enn
Ġr ated
Ġr ates
Ġr idge
ri f
Ġv ac
Ġor b
Ġch oir
Ġex cess
Ġpl ane
pt y
ĠV II
Ġcl ock
Ġag o
Ġother wise
Ġsp oke
Ġ6 3
man n
Ġ9 00
Ġwrit ings
Ġact ual
Ġam mun
Ġsever ely
Ġorigin ated
Ġship ping
Ġinst alled
Ġgener ated
Ġexp osure
Ġhel icop
Ġrest rict
Ġ192 8
Ġeng ines
Ġdem and
Ġsuggest ing
Ġfr ame
ĠPar vati
Ġfact ors
Ġinterest s
Ġwat ching
Ġread ers
ĠTown ship
rest ling
Ġcross es
Ġburn ed
Ġinform ed
Ġking dom
Ġmaterial s
ĠIsrael i
Ġsat isf
ĠNor way
Ġess ential
Ġsubs pecies
Ġapparent ly
Ġjournal ist
Ġdoub t
ĠMass achus
Ġhappen ed
Ġpan el
Ġpict ure
Ġcust om
Ġchair man
Ġjack rab
ĠEdu cation
ĠRÃ© union
Ġcircum stances
ĠBark er
Ġammun ition
ĠMassachus etts
g ency
m n
n i
r ants
á »
Ġ ille
he era
Ġc art
Ġc iting
Ġf estival
ĠT on
Ġre ady
ĠA ld
il st
ĠS ports
ĠC ec
ac le
ĠH amp
ĠH aving
ut z
ĠF ound
ĠG ary
ĠG wen
ag a
ĠE aton
ĠIn t
ate au
ab les
ĠK ann
ov en
ra ham
Ġcl imate
Ġrec ur
Ġpart ially
Ġdis aster
Ġear n
Ġrel ie
Ġcan cer
Ġmov ements
Ġele ven
ĠBr anch
Ġbel t
Ġoper ate
Ġgener als
Ġimp ossible
Ġcar ved
Ġlate x
ĠGu ide
Ġlist en
urric anes
Ġ192 7
Ġcaus es
ĠPe ters
Ġpar ish
ĠMin istry
Ġvict ories
ĠX e
ĠFeder al
ĠRich mond
Ġmix ture
Ġsurv ive
ĠCor por
Ġburn ing
ĠWil son
Ġtransport ation
ĠPortug al
Ġlay er
Ġbomb ard
Ġadminist r
Ġshell s
Ġinstr uments
Ġstarl ings
Ġbehav ior
ĠHistor ic
Ġdepart ure
ĠRA AF
ĠSwed ish
tav Äģda
Ġsubstant ial
Ġoverse as
ĠPatt y
Ġresist ance
ekÄģn tavÄģda
ĠUstaÅ¡ e
ĠKann ada
O K
l ife
p es
p ent
y ria
z ac
Ê »
Ġs quadron
Ġw ine
Ġd angerous
le ts
il ing
ĠS is
Ġl over
Ġl iber
ĠC BS
Ġwas n
Ġbe aring
ur se
ĠM and
ĠM idge
ĠM asters
ĠM Ã¡r
ĠB all
ĠB aker
ĠB ureau
ith ic
ĠP ass
ĠP ict
ch ang
and oba
os l
os m
ĠE lect
ĠE agle
Ġsh ut
ast e
te enth
Ġun like
Ġro oms
Ġab und
Ġres igned
ric ted
Ġafter wards
Ġsp ores
ĠY ug
Ġspe nd
Ġcomm em
Ġcons c
Ġam ateur
Ġsupp orters
Ġinst ance
Ġmusic ian
Ġmod els
Ġ193 3
Ġrest ored
Ġmar ry
Ġlist ing
Ġph r
que z
Ġtem ples
Ġcompet e
ĠSim pson
ĠPol ice
Ġinterest ing
Ġlook s
Ġtechn iques
Ġelect ronic
Ġ186 0
Ġsequ ences
Ġengine ers
Ġthink ing
ĠKh andoba
Ġtrib ute
Ġlo an
Ġpers u
Ġestablish ing
Ġdoc uments
for ced
itz er
ĠVer onica
ĠHow e
ror ist
AS A
Ġopportun ities
Ġstrugg le
Ġwindow s
Ġpremi ered
Ġbeaut iful
ĠStew art
ĠYan ke
ĠMÃ¡r quez
ĠYug osl
D H
H g
M O
n al
p us
s p
u v
w estern
Ġt ip
Ġs ale
Ġf ram
Ġin Hg
Ġp ale
Ġm ode
ro it
le ph
ĠT am
ent ional
ĠA P
ĠS oon
om ura
ĠThe n
Ġg ard
Ġfor cing
ĠB ath
ot ton
ĠR oc
ĠF RE
ĠW right
os is
ĠN ad
ĠN iel
ĠL ith
ĠL ast
Ġhe at
ĠJ r
Ġpro ve
Ġâ Ĥ
Ġnot ably
ip ed
ish ment
Ġun ion
Ġrec ru
ry ce
Ġout l
ren e
Ġ6 8
Ġrem ember
Ġinter action
Ġsub st
ros cop
Ġmin imum
Ġart work
Ġart ificial
ĠWh o
Ġdesign s
Ġoffic es
Ġ195 7
Ġadv is
Ġadv enture
Ġstorm s
ont o
Ġcr iminal
Ġsit uated
Ġel sewhere
Ġdiv or
Ġpred omin
Ġrecogn ised
Ġachie ve
ĠPhil ip
Ġmer ch
ĠTor onto
Ġproper ties
Ġmem orial
Ġcoin s
Ġexperi ences
ĠJust ice
Ġweap on
ĠRob in
Ġspir itual
ĠMill er
Ġthous and
Ġneigh bor
Ġvess el
ĠGirl s
ĠJurc hen
ĠPhoen ix
ĠMul der
Ġretire ment
ĠMozamb ique
ĠDet roit
LI MO
Ġacknow led
atech ism
ĠFRE LIMO
c ru
i ar
Å Ľ
á ĥ
Ġ áĥ
Ġt iss
Ġt anks
he me
Ġs ons
or row
Ġf ountain
Ġm ask
ic ide
ĠT s
Ġre ct
ĠS b
ĠS ans
om atic
ĠC ob
ĠC elt
ĠI ra
Ġg iant
ĠB ell
ĠB ang
ĠB enn
ĠP oint
ĠR est
ĠR aj
Ġcon j
ĠN etwork
Ġse lection
Ġv ast
ak a
Ġsh op
ĠK im
ĠK ansas
ord er
ear s
Ġtr ained
ĠV ice
Ġres ign
Ġag ents
Ġatt rib
Ġ6 7
ĠSe e
ĠSe ason
ĠDe ath
Ġform at
Ġfound er
ather ine
ĠSc ully
Ġob st
Ġdep icts
Ġinst ru
Ġcount ies
Ġcharacter ized
ĠPro g
pend ed
Ġeng age
ĠMan agement
Ġstar red
Ġformer ly
Ġwest ward
ĠMin or
ĠPer fect
Ġfr ig
Ġstat istics
ĠBar ry
Ġprogram me
Ġrad iation
ĠKe vin
Ġ185 0
Ġfall en
Ġmeas ured
Ġcost s
Ġbur ial
Ġcop y
Ġobject ive
Ġnetwork s
ĠMo ore
ĠRuss ia
Ġcle ared
Ġche ck
Ġbig gest
Ġdepend ing
Ġphot ograph
Ġinstit ution
Ġvehic le
Ġremark ed
Ġexcav ation
Ġhol iday
ĠJourn ey
ĠAlbum s
Ġdelay ed
ĠCole man
umpt ion
ĠBull s
ĠGil bert
ĠWi ÅĽ
owie cki
Ġconvin ced
Ġps ych
Ġinfrast ructure
ĠHud son
ni owiecki
ĠWiÅĽ niowiecki
h ist
m el
n ce
o e
u able
Ä ĩ
he im
he red
er atops
Ġs ed
Ġm amm
Ġd ream
Ġh orn
ĠS id
ĠS uch
ĠB udd
Ġst yles
ot al
ĠG ate
Ġr um
